{
  "version": "1.0",
  "truncation": {
    "direction": "Right",
    "max_length": 40,
    "strategy": "LongestFirst",
    "stride": 0
  },
  "padding": {
    "strategy": {
      "Fixed": 40
    },
    "direction": "Right",
    "pad_to_multiple_of": null,
    "pad_id": 0,
    "pad_type_id": 0,
    "pad_token": "[PAD]"
  },
  "added_tokens": [
    {
      "id": 0,
      "content": "[UNK]",
      "single_word": false,
      "lstrip": false,
      "rstrip": false,
      "normalized": false,
      "special": true
    },
    {
      "id": 1,
      "content": "[CLS]",
      "single_word": false,
      "lstrip": false,
      "rstrip": false,
      "normalized": false,
      "special": true
    },
    {
      "id": 2,
      "content": "[SEP]",
      "single_word": false,
      "lstrip": false,
      "rstrip": false,
      "normalized": false,
      "special": true
    },
    {
      "id": 3,
      "content": "[PAD]",
      "single_word": false,
      "lstrip": false,
      "rstrip": false,
      "normalized": false,
      "special": true
    }
  ],
  "normalizer": {
    "type": "Sequence",
    "normalizers": [
      {
        "type": "NFD"
      },
      {
        "type": "Lowercase"
      },
      {
        "type": "StripAccents"
      }
    ]
  },
  "pre_tokenizer": {
    "type": "Whitespace"
  },
  "post_processor": null,
  "decoder": null,
  "model": {
    "type": "WordPiece",
    "unk_token": "[UNK]",
    "continuing_subword_prefix": "##",
    "max_input_chars_per_word": 100,
    "vocab": {
      "[UNK]": 0,
      "[CLS]": 1,
      "[SEP]": 2,
      "[PAD]": 3,
      "!": 4,
      "\"": 5,
      "$": 6,
      "%": 7,
      "&": 8,
      "'": 9,
      "(": 10,
      ")": 11,
      "*": 12,
      "+": 13,
      ",": 14,
      "-": 15,
      ".": 16,
      "/": 17,
      "0": 18,
      "1": 19,
      "2": 20,
      "3": 21,
      "4": 22,
      "5": 23,
      "6": 24,
      "7": 25,
      "8": 26,
      "9": 27,
      ":": 28,
      ";": 29,
      "<": 30,
      "=": 31,
      ">": 32,
      "?": 33,
      "@": 34,
      "^": 35,
      "_": 36,
      "`": 37,
      "a": 38,
      "b": 39,
      "c": 40,
      "d": 41,
      "e": 42,
      "f": 43,
      "g": 44,
      "h": 45,
      "i": 46,
      "j": 47,
      "k": 48,
      "l": 49,
      "m": 50,
      "n": 51,
      "o": 52,
      "p": 53,
      "q": 54,
      "r": 55,
      "s": 56,
      "t": 57,
      "u": 58,
      "v": 59,
      "w": 60,
      "x": 61,
      "y": 62,
      "z": 63,
      "|": 64,
      "~": 65,
      "¡": 66,
      "£": 67,
      "°": 68,
      "²": 69,
      "´": 70,
      "ß": 71,
      "ω": 72,
      "а": 73,
      "б": 74,
      "в": 75,
      "г": 76,
      "д": 77,
      "е": 78,
      "ж": 79,
      "з": 80,
      "и": 81,
      "к": 82,
      "л": 83,
      "м": 84,
      "н": 85,
      "о": 86,
      "п": 87,
      "р": 88,
      "с": 89,
      "т": 90,
      "у": 91,
      "х": 92,
      "ц": 93,
      "ч": 94,
      "ш": 95,
      "щ": 96,
      "ъ": 97,
      "ы": 98,
      "ь": 99,
      "ю": 100,
      "я": 101,
      "є": 102,
      "і": 103,
      "ا": 104,
      "ب": 105,
      "ت": 106,
      "خ": 107,
      "د": 108,
      "ر": 109,
      "س": 110,
      "ع": 111,
      "ل": 112,
      "م": 113,
      "ن": 114,
      "و": 115,
      "ي": 116,
      "پ": 117,
      "چ": 118,
      "ڑ": 119,
      "ک": 120,
      "ھ": 121,
      "ے": 122,
      "ა": 123,
      "გ": 124,
      "დ": 125,
      "ე": 126,
      "ვ": 127,
      "ზ": 128,
      "ი": 129,
      "კ": 130,
      "ლ": 131,
      "რ": 132,
      "ს": 133,
      "ფ": 134,
      "ყ": 135,
      "წ": 136,
      "ხ": 137,
      "ჯ": 138,
      "‍": 139,
      "–": 140,
      "—": 141,
      "‘": 142,
      "’": 143,
      "“": 144,
      "”": 145,
      "„": 146,
      "…": 147,
      "€": 148,
      "━": 149,
      "┻": 150,
      "╥": 151,
      "╯": 152,
      "□": 153,
      "☀": 154,
      "☠": 155,
      "☹": 156,
      "☺": 157,
      "♀": 158,
      "♂": 159,
      "♥": 160,
      "⚠": 161,
      "✅": 162,
      "✊": 163,
      "✌": 164,
      "✨": 165,
      "❌": 166,
      "❓": 167,
      "❤": 168,
      "➕": 169,
      "⠃": 170,
      "⠄": 171,
      "⠏": 172,
      "⠑": 173,
      "⠘": 174,
      "⠙": 175,
      "⠚": 176,
      "⠛": 177,
      "⠣": 178,
      "⠸": 179,
      "⠻": 180,
      "⠼": 181,
      "⠿": 182,
      "⡄": 183,
      "⡅": 184,
      "⡆": 185,
      "⡉": 186,
      "⡛": 187,
      "⡟": 188,
      "⡠": 189,
      "⡧": 190,
      "⡻": 191,
      "⡿": 192,
      "⢀": 193,
      "⢆": 194,
      "⢘": 195,
      "⢛": 196,
      "⢠": 197,
      "⢣": 198,
      "⢭": 199,
      "⢶": 200,
      "⢸": 201,
      "⢹": 202,
      "⢻": 203,
      "⢽": 204,
      "⢿": 205,
      "⣀": 206,
      "⣁": 207,
      "⣌": 208,
      "⣖": 209,
      "⣛": 210,
      "⣝": 211,
      "⣟": 212,
      "⣡": 213,
      "⣣": 214,
      "⣤": 215,
      "⣦": 216,
      "⣧": 217,
      "⣭": 218,
      "⣮": 219,
      "⣰": 220,
      "⣱": 221,
      "⣴": 222,
      "⣶": 223,
      "⣷": 224,
      "⣸": 225,
      "⣻": 226,
      "⣼": 227,
      "⣽": 228,
      "⣾": 229,
      "⣿": 230,
      "う": 231,
      "す": 232,
      "そ": 233,
      "て": 234,
      "ノ": 235,
      "彡": 236,
      "︵": 237,
      "﹏": 238,
      "）": 239,
      "｀": 240,
      "ﾉ": 241,
      "🆗": 242,
      "🇦": 243,
      "🇱": 244,
      "🇺": 245,
      "🌅": 246,
      "🌙": 247,
      "🌚": 248,
      "🌝": 249,
      "🌯": 250,
      "🌽": 251,
      "🌿": 252,
      "🍁": 253,
      "🍇": 254,
      "🍋": 255,
      "🍑": 256,
      "🍕": 257,
      "🎂": 258,
      "🎈": 259,
      "🎉": 260,
      "🎮": 261,
      "🏀": 262,
      "🏃": 263,
      "🏆": 264,
      "🏓": 265,
      "🏡": 266,
      "🏻": 267,
      "🏼": 268,
      "🏽": 269,
      "🐑": 270,
      "🐛": 271,
      "🐲": 272,
      "🐸": 273,
      "👀": 274,
      "👁": 275,
      "👃": 276,
      "👄": 277,
      "👆": 278,
      "👈": 279,
      "👉": 280,
      "👊": 281,
      "👌": 282,
      "👍": 283,
      "👎": 284,
      "👏": 285,
      "👑": 286,
      "👟": 287,
      "👨": 288,
      "👳": 289,
      "👵": 290,
      "👸": 291,
      "👹": 292,
      "💀": 293,
      "💅": 294,
      "💋": 295,
      "💔": 296,
      "💦": 297,
      "💩": 298,
      "💪": 299,
      "💫": 300,
      "💵": 301,
      "💻": 302,
      "📉": 303,
      "📻": 304,
      "🔟": 305,
      "🔥": 306,
      "🔪": 307,
      "🕊": 308,
      "🕧": 309,
      "🕳": 310,
      "🖐": 311,
      "🖕": 312,
      "🖖": 313,
      "😁": 314,
      "😂": 315,
      "😃": 316,
      "😄": 317,
      "😅": 318,
      "😆": 319,
      "😇": 320,
      "😈": 321,
      "😉": 322,
      "😊": 323,
      "😋": 324,
      "😌": 325,
      "😍": 326,
      "😎": 327,
      "😏": 328,
      "😐": 329,
      "😑": 330,
      "😓": 331,
      "😔": 332,
      "😘": 333,
      "😛": 334,
      "😜": 335,
      "😝": 336,
      "😞": 337,
      "😟": 338,
      "😠": 339,
      "😡": 340,
      "😢": 341,
      "😣": 342,
      "😨": 343,
      "😫": 344,
      "😬": 345,
      "😭": 346,
      "😮": 347,
      "😯": 348,
      "😲": 349,
      "😳": 350,
      "😵": 351,
      "😶": 352,
      "😻": 353,
      "🙀": 354,
      "🙁": 355,
      "🙂": 356,
      "🙃": 357,
      "🙅": 358,
      "🙈": 359,
      "🙌": 360,
      "🙏": 361,
      "🚀": 362,
      "🚨": 363,
      "🚬": 364,
      "🚴": 365,
      "🤌": 366,
      "🤏": 367,
      "🤑": 368,
      "🤒": 369,
      "🤔": 370,
      "🤕": 371,
      "🤗": 372,
      "🤞": 373,
      "🤟": 374,
      "🤠": 375,
      "🤡": 376,
      "🤢": 377,
      "🤣": 378,
      "🤤": 379,
      "🤦": 380,
      "🤨": 381,
      "🤩": 382,
      "🤪": 383,
      "🤫": 384,
      "🤬": 385,
      "🤭": 386,
      "🤮": 387,
      "🤯": 388,
      "🤲": 389,
      "🤷": 390,
      "🥁": 391,
      "🥩": 392,
      "🥰": 393,
      "🥲": 394,
      "🥳": 395,
      "🥴": 396,
      "🥵": 397,
      "🥶": 398,
      "🥹": 399,
      "🥺": 400,
      "🦀": 401,
      "🦃": 402,
      "🦊": 403,
      "🦦": 404,
      "🦯": 405,
      "🦶": 406,
      "🦸": 407,
      "🧀": 408,
      "🧎": 409,
      "🧐": 410,
      "🧻": 411,
      "🫠": 412,
      "🫡": 413,
      "🫣": 414,
      "🫥": 415,
      "🫰": 416,
      "##c": 417,
      "##e": 418,
      "##h": 419,
      "##n": 420,
      "##l": 421,
      "##r": 422,
      "##o": 423,
      "##b": 424,
      "##i": 425,
      "##s": 426,
      "##u": 427,
      "##a": 428,
      "##w": 429,
      "##d": 430,
      "##t": 431,
      "##v": 432,
      "##y": 433,
      "##g": 434,
      "##о": 435,
      "##к": 436,
      "##р": 437,
      "##у": 438,
      "##г": 439,
      "##f": 440,
      "##)": 441,
      "##p": 442,
      "##.": 443,
      "##m": 444,
      "##🤦": 445,
      "##k": 446,
      "##x": 447,
      "##н": 448,
      "##е": 449,
      "##м": 450,
      "##ß": 451,
      "##🥺": 452,
      "##z": 453,
      "##😂": 454,
      "##а": 455,
      "##🌅": 456,
      "##5": 457,
      "##q": 458,
      "##0": 459,
      "##7": 460,
      "##2": 461,
      "##3": 462,
      "##🇱": 463,
      "##🇦": 464,
      "##6": 465,
      "##8": 466,
      "##1": 467,
      "##4": 468,
      "##%": 469,
      "##😭": 470,
      "##🙏": 471,
      "##🚨": 472,
      "##╥": 473,
      "##п": 474,
      "##і": 475,
      "##т": 476,
      "##и": 477,
      "##j": 478,
      "##ч": 479,
      "##,": 480,
      "##⠄": 481,
      "##⣼": 482,
      "##⣿": 483,
      "##⣦": 484,
      "##⠙": 485,
      "##⡅": 486,
      "##⠚": 487,
      "##⣡": 488,
      "##⣴": 489,
      "##⡆": 490,
      "##🔥": 491,
      "##🤪": 492,
      "##в": 493,
      "##^": 494,
      "##°": 495,
      "##/": 496,
      "##*": 497,
      "##д": 498,
      "##🤞": 499,
      "##🤣": 500,
      "##9": 501,
      "##ع": 502,
      "##ب": 503,
      "##ا": 504,
      "##ن": 505,
      "##🥳": 506,
      "##-": 507,
      "##ю": 508,
      "##😈": 509,
      "##👍": 510,
      "##🏼": 511,
      "##🧻": 512,
      "##>": 513,
      "##⢹": 514,
      "##⠣": 515,
      "##⣛": 516,
      "##⣣": 517,
      "##⣭": 518,
      "##⣁": 519,
      "##⡛": 520,
      "##⠻": 521,
      "##⢽": 522,
      "##⢻": 523,
      "##⣽": 524,
      "##⡧": 525,
      "##⡄": 526,
      "##\"": 527,
      "##(": 528,
      "##⢀": 529,
      "##⠼": 530,
      "##⢭": 531,
      "##⣟": 532,
      "##⠿": 533,
      "##⢆": 534,
      "##⡠": 535,
      "##⢿": 536,
      "##ш": 537,
      "##🤔": 538,
      "##🎉": 539,
      "##є": 540,
      "##ы": 541,
      "##?": 542,
      "##❤": 543,
      "##🙌": 544,
      "##🌿": 545,
      "##🙀": 546,
      "##🏽": 547,
      "##“": 548,
      "##😍": 549,
      "##|": 550,
      "##х": 551,
      "##😵": 552,
      "##🥴": 553,
      "##😬": 554,
      "##с": 555,
      "##👄": 556,
      "##👁": 557,
      "##ს": 558,
      "##ე": 559,
      "##ლ": 560,
      "##ი": 561,
      "##👀": 562,
      "##+": 563,
      "##彡": 564,
      "##…": 565,
      "##پ": 566,
      "##ے": 567,
      "##👌": 568,
      "##ყ": 569,
      "##რ": 570,
      "##ჯ": 571,
      "##ზ": 572,
      "##з": 573,
      "##л": 574,
      "##я": 575,
      "##🏻": 576,
      "##う": 577,
      "##て": 578,
      "##す": 579,
      "##و": 580,
      "##د": 581,
      "##щ": 582,
      "##!": 583,
      "##б": 584,
      "##ь": 585,
      "##”": 586,
      "##🤑": 587,
      "##⠸": 588,
      "##⢣": 589,
      "##⢶": 590,
      "##⣖": 591,
      "##⣷": 592,
      "##⣻": 593,
      "##⣮": 594,
      "##⡿": 595,
      "##⣶": 596,
      "##⣤": 597,
      "##⡉": 598,
      "##დ": 599,
      "##გ": 600,
      "##წ": 601,
      "##ხ": 602,
      "##😅": 603,
      "##➕": 604,
      "##¡": 605,
      "##⠛": 606,
      "##⠑": 607,
      "##⣝": 608,
      "##🤢": 609,
      "##🤠": 610,
      "##💀": 611,
      "##🦶": 612,
      "##👳": 613,
      "##🌚": 614,
      "##🚀": 615,
      "##ر": 616,
      "##🥵": 617,
      "##ت": 618,
      "##ھ": 619,
      "##👨": 620,
      "##'": 621,
      "##✨": 622,
      "##ж": 623,
      "##🥲": 624,
      "##🙈": 625,
      "##🙁": 626,
      "##❌": 627,
      "##🤒": 628,
      "##🤬": 629,
      "##😡": 630,
      "##ა": 631,
      "##:": 632,
      "##<": 633,
      "##⠘": 634,
      "##⢛": 635,
      "##⣧": 636,
      "##⠃": 637,
      "##👉": 638,
      "##👈": 639,
      "##╯": 640,
      "##□": 641,
      "##）": 642,
      "##︵": 643,
      "##😻": 644,
      "##😎": 645,
      "##س": 646,
      "##⢸": 647,
      "##ڑ": 648,
      "##🥁": 649,
      "##😐": 650,
      "##💦": 651,
      "##⣸": 652,
      "##💪": 653,
      "##🤡": 654,
      "##خ": 655,
      "##ي": 656,
      "##م": 657,
      "##☺": 658,
      "##🖕": 659,
      "##━": 660,
      "##┻": 661,
      "##@": 662,
      "##😉": 663,
      "##⡟": 664,
      "##🤮": 665,
      "##🖖": 666,
      "##🤟": 667,
      "##👆": 668,
      "##👎": 669,
      "##👏": 670,
      "##🖐": 671,
      "##ъ": 672,
      "##🌝": 673,
      "##🔪": 674,
      "##😏": 675,
      "##🤷": 676,
      "##😑": 677,
      "##⣰": 678,
      "##⣱": 679,
      "##⣾": 680,
      "##👃": 681,
      "##_": 682,
      "##⣌": 683,
      "##⢘": 684,
      "##⡻": 685,
      "##⠏": 686,
      "##⣀": 687,
      "##🤯": 688,
      "##🤲": 689,
      "##😁": 690,
      "##🍇": 691,
      "th": 692,
      "##in": 693,
      "##er": 694,
      "##ou": 695,
      "##an": 696,
      "the": 697,
      "##ing": 698,
      "to": 699,
      "##ll": 700,
      "##on": 701,
      "##en": 702,
      "##or": 703,
      "##at": 704,
      "##es": 705,
      "an": 706,
      "##om": 707,
      "in": 708,
      "##it": 709,
      "##ch": 710,
      "we": 711,
      "##re": 712,
      "it": 713,
      "##et": 714,
      "you": 715,
      "##ay": 716,
      "is": 717,
      "##is": 718,
      "ha": 719,
      "##ed": 720,
      "wh": 721,
      "##ot": 722,
      "and": 723,
      "##ea": 724,
      "##st": 725,
      "##ow": 726,
      "##ut": 727,
      "##oo": 728,
      "##ere": 729,
      "for": 730,
      "ch": 731,
      "##am": 732,
      "##ve": 733,
      "on": 734,
      "##ar": 735,
      "##ke": 736,
      "##ill": 737,
      "##ck": 738,
      "##ome": 739,
      "can": 740,
      "be": 741,
      "##le": 742,
      "##se": 743,
      "me": 744,
      "st": 745,
      "di": 746,
      "al": 747,
      "##gh": 748,
      "##ai": 749,
      "##as": 750,
      "of": 751,
      "at": 752,
      "##ld": 753,
      "are": 754,
      "that": 755,
      "pl": 756,
      "sh": 757,
      "do": 758,
      "##ce": 759,
      "##ur": 760,
      "##al": 761,
      "this": 762,
      "##all": 763,
      "##us": 764,
      "br": 765,
      "li": 766,
      "but": 767,
      "if": 768,
      "have": 769,
      "not": 770,
      "go": 771,
      "so": 772,
      "##one": 773,
      "or": 774,
      "##un": 775,
      "ne": 776,
      "any": 777,
      "fr": 778,
      "chai": 779,
      "will": 780,
      "wan": 781,
      "##op": 782,
      "there": 783,
      "##ith": 784,
      "##ould": 785,
      "##ght": 786,
      "##im": 787,
      "##ion": 788,
      "he": 789,
      "##ly": 790,
      "with": 791,
      "##ver": 792,
      "##ust": 793,
      "some": 794,
      "get": 795,
      "##ad": 796,
      "##ee": 797,
      "no": 798,
      "##ter": 799,
      "like": 800,
      "##ah": 801,
      "what": 802,
      "gu": 803,
      "just": 804,
      "##id": 805,
      "##nd": 806,
      "##her": 807,
      "as": 808,
      "##ct": 809,
      "##ood": 810,
      "##ich": 811,
      "##ent": 812,
      "want": 813,
      "come": 814,
      "##ight": 815,
      "##ir": 816,
      "##ake": 817,
      "my": 818,
      "##ge": 819,
      "##ink": 820,
      "com": 821,
      "up": 822,
      "don": 823,
      "ok": 824,
      "was": 825,
      "##ab": 826,
      "tr": 827,
      "min": 828,
      "from": 829,
      "##est": 830,
      "one": 831,
      "they": 832,
      "##os": 833,
      "##day": 834,
      "##ol": 835,
      "too": 836,
      "guy": 837,
      "##ore": 838,
      "##ook": 839,
      "re": 840,
      "als": 841,
      "need": 842,
      "pr": 843,
      "ab": 844,
      "also": 845,
      "su": 846,
      "##ie": 847,
      "all": 848,
      "##na": 849,
      "now": 850,
      "am": 851,
      "pe": 852,
      "jo": 853,
      "then": 854,
      "hou": 855,
      "##ess": 856,
      "##uck": 857,
      "##ople": 858,
      "people": 859,
      "le": 860,
      "##ack": 861,
      "sp": 862,
      "##ice": 863,
      "out": 864,
      "##pp": 865,
      "##end": 866,
      "where": 867,
      "rea": 868,
      "im": 869,
      "##ic": 870,
      "guys": 871,
      "here": 872,
      "would": 873,
      "when": 874,
      "did": 875,
      "##out": 876,
      "man": 877,
      "yes": 878,
      "##il": 879,
      "let": 880,
      "who": 881,
      "##hing": 882,
      "##art": 883,
      "coming": 884,
      "got": 885,
      "##au": 886,
      "##ak": 887,
      "kn": 888,
      "wor": 889,
      "##ain": 890,
      "##be": 891,
      "think": 892,
      "play": 893,
      "##rou": 894,
      "##ame": 895,
      "anyone": 896,
      "##uh": 897,
      "##ate": 898,
      "##ff": 899,
      "##dy": 900,
      "how": 901,
      "haus": 902,
      "good": 903,
      "yo": 904,
      "know": 905,
      "dr": 906,
      "tim": 907,
      "##ick": 908,
      "##ers": 909,
      "bit": 910,
      "de": 911,
      "yea": 912,
      "bo": 913,
      "your": 914,
      "##ind": 915,
      "dam": 916,
      "##um": 917,
      "still": 918,
      "fuck": 919,
      "bruh": 920,
      "lea": 921,
      "##and": 922,
      "going": 923,
      "##oll": 924,
      "##ul": 925,
      "more": 926,
      "##ine": 927,
      "30": 928,
      "ex": 929,
      "div": 930,
      "##ach": 931,
      "thou": 932,
      "##ation": 933,
      "about": 934,
      "time": 935,
      "damn": 936,
      "##amp": 937,
      "##ig": 938,
      "##ide": 939,
      "##ally": 940,
      "##nt": 941,
      "##ost": 942,
      "today": 943,
      "##orr": 944,
      "she": 945,
      "##lo": 946,
      "se": 947,
      "te": 948,
      "##ast": 949,
      "may": 950,
      "10": 951,
      "house": 952,
      "##ater": 953,
      "work": 954,
      "##uch": 955,
      "us": 956,
      "back": 957,
      "##ady": 958,
      "see": 959,
      "gon": 960,
      "##ag": 961,
      "yeah": 962,
      "lol": 963,
      "##ma": 964,
      "has": 965,
      "ll": 966,
      "##bo": 967,
      "gonna": 968,
      "##der": 969,
      "##ber": 970,
      "ever": 971,
      "##ven": 972,
      "shit": 973,
      "wa": 974,
      "##ive": 975,
      "##age": 976,
      "##ey": 977,
      "ram": 978,
      "than": 979,
      "look": 980,
      "make": 981,
      "take": 982,
      "alre": 983,
      "##oss": 984,
      "already": 985,
      "##body": 986,
      "stu": 987,
      "20": 988,
      "con": 989,
      "ich": 990,
      "##pt": 991,
      "join": 992,
      "und": 993,
      "day": 994,
      "##ort": 995,
      "ramon": 996,
      "che": 997,
      "should": 998,
      "pro": 999,
      "##kamp": 1000,
      "##ard": 1001,
      "them": 1002,
      "say": 1003,
      "##ong": 1004,
      "every": 1005,
      "nice": 1006,
      "pla": 1007,
      "##ther": 1008,
      "##pl": 1009,
      "##other": 1010,
      "15": 1011,
      "by": 1012,
      "##tw": 1013,
      "divy": 1014,
      "other": 1015,
      "##ear": 1016,
      "chill": 1017,
      "even": 1018,
      "tom": 1019,
      "ask": 1020,
      "maybe": 1021,
      "wait": 1022,
      "##van": 1023,
      "its": 1024,
      "food": 1025,
      "##th": 1026,
      "##ass": 1027,
      "##ist": 1028,
      "bro": 1029,
      "bring": 1030,
      "though": 1031,
      "her": 1032,
      "##atch": 1033,
      "##orrow": 1034,
      "btw": 1035,
      "ar": 1036,
      "cl": 1037,
      "##ool": 1038,
      "##ting": 1039,
      "##own": 1040,
      "af": 1041,
      "mo": 1042,
      "##ball": 1043,
      "##ause": 1044,
      "plan": 1045,
      "##ahah": 1046,
      "##me": 1047,
      "##alk": 1048,
      "wanna": 1049,
      "cr": 1050,
      "eat": 1051,
      "som": 1052,
      "##ies": 1053,
      "##ue": 1054,
      "wants": 1055,
      "check": 1056,
      "bet": 1057,
      "##ep": 1058,
      "only": 1059,
      "does": 1060,
      "ag": 1061,
      "##ung": 1062,
      "start": 1063,
      "leave": 1064,
      "tho": 1065,
      "levan": 1066,
      "bitch": 1067,
      "##olley": 1068,
      "book": 1069,
      "boss": 1070,
      "somet": 1071,
      "down": 1072,
      "order": 1073,
      "##ens": 1074,
      "grou": 1075,
      "un": 1076,
      "##gg": 1077,
      "##chen": 1078,
      "later": 1079,
      "##ft": 1080,
      "..": 1081,
      "ge": 1082,
      "##icht": 1083,
      "sure": 1084,
      "place": 1085,
      "co": 1086,
      "right": 1087,
      "##aa": 1088,
      "##way": 1089,
      "home": 1090,
      "over": 1091,
      "group": 1092,
      "##thing": 1093,
      "##olleyball": 1094,
      "sch": 1095,
      "##isa": 1096,
      "call": 1097,
      "##ap": 1098,
      "##te": 1099,
      "##round": 1100,
      "cou": 1101,
      "wt": 1102,
      "sm": 1103,
      "watch": 1104,
      "##erm": 1105,
      "happ": 1106,
      "around": 1107,
      "him": 1108,
      "volleyball": 1109,
      "##xt": 1110,
      "##ang": 1111,
      "##iv": 1112,
      "##ite": 1113,
      "bec": 1114,
      "tomorrow": 1115,
      "after": 1116,
      "something": 1117,
      "wtf": 1118,
      "eich": 1119,
      "ro": 1120,
      "bh": 1121,
      "en": 1122,
      "didn": 1123,
      "eichkamp": 1124,
      "way": 1125,
      "...": 1126,
      "##⣿⣿": 1127,
      "our": 1128,
      "##lly": 1129,
      "ad": 1130,
      "##he": 1131,
      "##ning": 1132,
      "##rs": 1133,
      "##ib": 1134,
      "##get": 1135,
      "well": 1136,
      "##aid": 1137,
      "##ctu": 1138,
      "prob": 1139,
      "die": 1140,
      "ek": 1141,
      "##ia": 1142,
      "boi": 1143,
      "anybody": 1144,
      "##able": 1145,
      "drink": 1146,
      "lo": 1147,
      "##side": 1148,
      "stuff": 1149,
      "same": 1150,
      "##ier": 1151,
      "dima": 1152,
      "##are": 1153,
      "##ks": 1154,
      "bu": 1155,
      "could": 1156,
      "much": 1157,
      "##fore": 1158,
      "why": 1159,
      "cool": 1160,
      "meet": 1161,
      "brother": 1162,
      "send": 1163,
      "ver": 1164,
      "##ound": 1165,
      "mean": 1166,
      "try": 1167,
      "because": 1168,
      "put": 1169,
      "sa": 1170,
      "##ish": 1171,
      "before": 1172,
      "risa": 1173,
      "##iw": 1174,
      "##ip": 1175,
      "##act": 1176,
      "##ity": 1177,
      "mins": 1178,
      "sle": 1179,
      "##de": 1180,
      "##ving": 1181,
      "##ree": 1182,
      "##uss": 1183,
      "better": 1184,
      "00": 1185,
      "id": 1186,
      "pab": 1187,
      "##hr": 1188,
      "really": 1189,
      "bar": 1190,
      "ciw": 1191,
      "nicht": 1192,
      "qu": 1193,
      "##ian": 1194,
      "ciwan": 1195,
      "find": 1196,
      "es": 1197,
      "eur": 1198,
      "thing": 1199,
      "##ect": 1200,
      "dont": 1201,
      "wr": 1202,
      "plea": 1203,
      "ein": 1204,
      "mak": 1205,
      "which": 1206,
      "##ions": 1207,
      "someone": 1208,
      "tell": 1209,
      "gr": 1210,
      "pre": 1211,
      "said": 1212,
      "##ann": 1213,
      "sleep": 1214,
      "sc": 1215,
      "were": 1216,
      "part": 1217,
      "##enn": 1218,
      "##up": 1219,
      "##da": 1220,
      "##ail": 1221,
      "off": 1222,
      "please": 1223,
      "-,": 1224,
      "bl": 1225,
      "bea": 1226,
      "set": 1227,
      "wee": 1228,
      "his": 1229,
      "##ax": 1230,
      "##mm": 1231,
      "next": 1232,
      "##ade": 1233,
      "##irst": 1234,
      "again": 1235,
      "actu": 1236,
      "late": 1237,
      "anything": 1238,
      "left": 1239,
      "pablo": 1240,
      "mil": 1241,
      "##we": 1242,
      "##omm": 1243,
      "ist": 1244,
      "##per": 1245,
      "guess": 1246,
      "done": 1247,
      "el": 1248,
      "kit": 1249,
      "##yy": 1250,
      "##fi": 1251,
      "##ead": 1252,
      "##ali": 1253,
      "##eep": 1254,
      "playing": 1255,
      "##port": 1256,
      "##int": 1257,
      "fri": 1258,
      "fucking": 1259,
      "##gether": 1260,
      "first": 1261,
      "last": 1262,
      "ph": 1263,
      "together": 1264,
      "em": 1265,
      "##ayda": 1266,
      "had": 1267,
      "outside": 1268,
      "happen": 1269,
      "probab": 1270,
      "opt": 1271,
      "##cc": 1272,
      "##ry": 1273,
      "bitches": 1274,
      "actually": 1275,
      "kitchen": 1276,
      "game": 1277,
      "pay": 1278,
      "these": 1279,
      "room": 1280,
      "fl": 1281,
      "##iz": 1282,
      "##ark": 1283,
      "##urg": 1284,
      "ppl": 1285,
      "##el": 1286,
      "probably": 1287,
      "sun": 1288,
      "tak": 1289,
      "##ra": 1290,
      "pers": 1291,
      "##ever": 1292,
      "##ont": 1293,
      "12": 1294,
      "kind": 1295,
      "ye": 1296,
      "new": 1297,
      "bot": 1298,
      "talk": 1299,
      "##lp": 1300,
      "##ant": 1301,
      "inter": 1302,
      "##ise": 1303,
      "okay": 1304,
      "else": 1305,
      "po": 1306,
      "##ase": 1307,
      "##ment": 1308,
      "everyone": 1309,
      "milk": 1310,
      "dis": 1311,
      "long": 1312,
      "war": 1313,
      "##hh": 1314,
      "##ss": 1315,
      "minut": 1316,
      "week": 1317,
      "person": 1318,
      "fur": 1319,
      "il": 1320,
      "might": 1321,
      "tw": 1322,
      "thought": 1323,
      "dun": 1324,
      "hell": 1325,
      "help": 1326,
      "##eel": 1327,
      "thanks": 1328,
      "mf": 1329,
      "##uf": 1330,
      "inf": 1331,
      "bi": 1332,
      "ber": 1333,
      "big": 1334,
      "dan": 1335,
      "op": 1336,
      "pass": 1337,
      "##ous": 1338,
      "##orm": 1339,
      "##iss": 1340,
      "hah": 1341,
      "har": 1342,
      "add": 1343,
      "fin": 1344,
      "sad": 1345,
      "##ull": 1346,
      "##az": 1347,
      "##ten": 1348,
      "alfi": 1349,
      "##ope": 1350,
      "##icket": 1351,
      "##erman": 1352,
      "alfiy": 1353,
      "du": 1354,
      "tur": 1355,
      "wir": 1356,
      "show": 1357,
      "##ahn": 1358,
      "many": 1359,
      "feel": 1360,
      "german": 1361,
      "ilayda": 1362,
      "cost": 1363,
      "res": 1364,
      "ticket": 1365,
      "##lf": 1366,
      "##bs": 1367,
      "##vie": 1368,
      "ton": 1369,
      "days": 1370,
      "app": 1371,
      "fun": 1372,
      "##erst": 1373,
      "##ote": 1374,
      "ass": 1375,
      "friend": 1376,
      "free": 1377,
      "mit": 1378,
      "##ces": 1379,
      "##ure": 1380,
      "doing": 1381,
      "##ula": 1382,
      "alfiya": 1383,
      "bus": 1384,
      "lit": 1385,
      "mon": 1386,
      "pula": 1387,
      "yet": 1388,
      "##geon": 1389,
      "looks": 1390,
      "bhall": 1391,
      "give": 1392,
      "ghe": 1393,
      "##lin": 1394,
      "##tt": 1395,
      "dec": 1396,
      "dungeon": 1397,
      "da": 1398,
      "der": 1399,
      "ur": 1400,
      "zu": 1401,
      "##ina": 1402,
      "hey": 1403,
      "buy": 1404,
      "cook": 1405,
      "near": 1406,
      "per": 1407,
      "##lit": 1408,
      "##ough": 1409,
      "getting": 1410,
      "wo": 1411,
      "cant": 1412,
      "stay": 1413,
      "berlin": 1414,
      "open": 1415,
      "gheor": 1416,
      "##if": 1417,
      "##org": 1418,
      "chea": 1419,
      "##iel": 1420,
      "real": 1421,
      "lets": 1422,
      "acc": 1423,
      "das": 1424,
      "ear": 1425,
      "ill": 1426,
      "night": 1427,
      "ve": 1428,
      "water": 1429,
      "hours": 1430,
      "tonight": 1431,
      "##of": 1432,
      "##ames": 1433,
      "train": 1434,
      "##ways": 1435,
      "enough": 1436,
      "beach": 1437,
      "bhalli": 1438,
      "case": 1439,
      "mus": 1440,
      "nah": 1441,
      "##ding": 1442,
      "##to": 1443,
      "minutes": 1444,
      "bike": 1445,
      "17": 1446,
      "card": 1447,
      "rn": 1448,
      "xd": 1449,
      "ind": 1450,
      "##eak": 1451,
      "pls": 1452,
      "ready": 1453,
      "party": 1454,
      "auf": 1455,
      "##ince": 1456,
      "##ange": 1457,
      "cre": 1458,
      "str": 1459,
      "noice": 1460,
      "cont": 1461,
      "air": 1462,
      "clo": 1463,
      "er": 1464,
      "oh": 1465,
      "##ha": 1466,
      "stop": 1467,
      "##ghe": 1468,
      "waiting": 1469,
      "movie": 1470,
      "gheorghe": 1471,
      "19": 1472,
      "21": 1473,
      "best": 1474,
      "walk": 1475,
      "##ac": 1476,
      "##ute": 1477,
      "##ooo": 1478,
      "16": 1479,
      "bali": 1480,
      "hi": 1481,
      "mone": 1482,
      "mess": 1483,
      "sw": 1484,
      "##rect": 1485,
      "never": 1486,
      "trip": 1487,
      "money": 1488,
      "end": 1489,
      "fe": 1490,
      "gre": 1491,
      "old": 1492,
      "sie": 1493,
      "till": 1494,
      "unt": 1495,
      "##ence": 1496,
      "alina": 1497,
      "##ffer": 1498,
      "??": 1499,
      "made": 1500,
      "sorr": 1501,
      "##ub": 1502,
      "##tle": 1503,
      "##😂😂": 1504,
      "inc": 1505,
      "split": 1506,
      "saw": 1507,
      "kinda": 1508,
      "sorry": 1509,
      ":(": 1510,
      "bad": 1511,
      "ho": 1512,
      "rest": 1513,
      "##right": 1514,
      "##bahn": 1515,
      "sugg": 1516,
      "exp": 1517,
      "very": 1518,
      "barkamp": 1519,
      "suggest": 1520,
      "hear": 1521,
      "since": 1522,
      "use": 1523,
      "##our": 1524,
      "chick": 1525,
      "hour": 1526,
      "doesn": 1527,
      "loc": 1528,
      "fi": 1529,
      "##cun": 1530,
      "##ne": 1531,
      "##ied": 1532,
      "##pm": 1533,
      "##ese": 1534,
      "called": 1535,
      "sit": 1536,
      "##pe": 1537,
      "##ance": 1538,
      "habe": 1539,
      "alright": 1540,
      "soon": 1541,
      "leaving": 1542,
      "both": 1543,
      "point": 1544,
      "den": 1545,
      "sl": 1546,
      "##con": 1547,
      "##han": 1548,
      "##ik": 1549,
      "##ta": 1550,
      "##ates": 1551,
      "took": 1552,
      "##macun": 1553,
      "idea": 1554,
      "taking": 1555,
      "14": 1556,
      "lah": 1557,
      "##wer": 1558,
      "##got": 1559,
      "##fe": 1560,
      "##ated": 1561,
      "beer": 1562,
      "differ": 1563,
      "thats": 1564,
      "divi": 1565,
      "##⣿⣿⣿⣿": 1566,
      "aus": 1567,
      "away": 1568,
      "cor": 1569,
      "miss": 1570,
      "##ans": 1571,
      "##ather": 1572,
      "##red": 1573,
      "least": 1574,
      "##achen": 1575,
      "working": 1576,
      "evening": 1577,
      "18": 1578,
      "11": 1579,
      "ke": 1580,
      "keep": 1581,
      "mens": 1582,
      "nach": 1583,
      "sound": 1584,
      "tenn": 1585,
      "##ious": 1586,
      "##uz": 1587,
      "##gen": 1588,
      "##ping": 1589,
      "##atur": 1590,
      "##ents": 1591,
      "underst": 1592,
      "those": 1593,
      "quest": 1594,
      "phone": 1595,
      "option": 1596,
      "found": 1597,
      "hat": 1598,
      "tea": 1599,
      "table": 1600,
      "tax": 1601,
      "went": 1602,
      "##no": 1603,
      "##ms": 1604,
      "##min": 1605,
      "change": 1606,
      "orhan": 1607,
      "without": 1608,
      "wanted": 1609,
      "thinking": 1610,
      "##ult": 1611,
      "mako": 1612,
      "hard": 1613,
      "chicken": 1614,
      "tennis": 1615,
      "13": 1616,
      "40": 1617,
      "ihr": 1618,
      "lu": 1619,
      "name": 1620,
      "##ban": 1621,
      "##ave": 1622,
      "their": 1623,
      "##ense": 1624,
      "alm": 1625,
      "##imm": 1626,
      "noch": 1627,
      "gotta": 1628,
      "dem": 1629,
      "##berg": 1630,
      "##ible": 1631,
      "happening": 1632,
      "auch": 1633,
      "fine": 1634,
      "lot": 1635,
      "ret": 1636,
      "##od": 1637,
      "##burg": 1638,
      "ones": 1639,
      "asked": 1640,
      "small": 1641,
      "understand": 1642,
      "cup": 1643,
      "full": 1644,
      "mor": 1645,
      "sk": 1646,
      "won": 1647,
      "alban": 1648,
      "##aha": 1649,
      "comm": 1650,
      "50": 1651,
      "ah": 1652,
      "eine": 1653,
      "far": 1654,
      "less": 1655,
      "##ii": 1656,
      "##wn": 1657,
      "##🇦🇱": 1658,
      "##ord": 1659,
      "##esh": 1660,
      "been": 1661,
      "plz": 1662,
      "mine": 1663,
      "rec": 1664,
      "ext": 1665,
      "stud": 1666,
      "conf": 1667,
      "message": 1668,
      "lahmacun": 1669,
      "almost": 1670,
      "bre": 1671,
      "bang": 1672,
      "burg": 1673,
      "cause": 1674,
      "dur": 1675,
      "pi": 1676,
      "wer": 1677,
      "##lich": 1678,
      "##sch": 1679,
      "##ount": 1680,
      "into": 1681,
      "##lean": 1682,
      "frid": 1683,
      "needs": 1684,
      "everything": 1685,
      "tickets": 1686,
      "clean": 1687,
      "run": 1688,
      "##hof": 1689,
      "##li": 1690,
      "##ild": 1691,
      "##wise": 1692,
      "##fer": 1693,
      "##part": 1694,
      "##ank": 1695,
      "another": 1696,
      "##oooo": 1697,
      "nothing": 1698,
      "front": 1699,
      "##terday": 1700,
      "spe": 1701,
      "yesterday": 1702,
      "trying": 1703,
      "making": 1704,
      "cheap": 1705,
      "morning": 1706,
      "des": 1707,
      "kon": 1708,
      "mar": 1709,
      "vote": 1710,
      "##les": 1711,
      "##ben": 1712,
      "##qu": 1713,
      "##ating": 1714,
      "##ister": 1715,
      "##self": 1716,
      "always": 1717,
      "god": 1718,
      "chilling": 1719,
      "booking": 1720,
      "##aaaa": 1721,
      "love": 1722,
      "prett": 1723,
      "options": 1724,
      "flight": 1725,
      "daniel": 1726,
      "##azy": 1727,
      "great": 1728,
      "22": 1729,
      "45": 1730,
      "bag": 1731,
      "hot": 1732,
      "most": 1733,
      "vide": 1734,
      "##ci": 1735,
      "##ling": 1736,
      "##wh": 1737,
      "##ves": 1738,
      "read": 1739,
      "talking": 1740,
      "hahahah": 1741,
      "until": 1742,
      "mensa": 1743,
      "taxi": 1744,
      "pretty": 1745,
      ":)": 1746,
      "car": 1747,
      "each": 1748,
      "hope": 1749,
      "men": 1750,
      "pack": 1751,
      "peep": 1752,
      "red": 1753,
      "sent": 1754,
      "tu": 1755,
      "##ile": 1756,
      "##den": 1757,
      "##gr": 1758,
      "##mber": 1759,
      "##ße": 1760,
      "##amm": 1761,
      "once": 1762,
      "##ash": 1763,
      "whats": 1764,
      "says": 1765,
      "eating": 1766,
      "coff": 1767,
      "cour": 1768,
      "idk": 1769,
      "things": 1770,
      "location": 1771,
      "lugg": 1772,
      "##🇦🇱🇦🇱": 1773,
      "peeps": 1774,
      "city": 1775,
      "mom": 1776,
      "wenn": 1777,
      "##land": 1778,
      "##app": 1779,
      "##za": 1780,
      "char": 1781,
      "comp": 1782,
      "prop": 1783,
      "aber": 1784,
      "reach": 1785,
      "whole": 1786,
      "places": 1787,
      "planning": 1788,
      "georg": 1789,
      "close": 1790,
      "different": 1791,
      "sounds": 1792,
      "##where": 1793,
      "coffee": 1794,
      "luggage": 1795,
      "ost": 1796,
      "ser": 1797,
      "test": 1798,
      "##sh": 1799,
      "##ug": 1800,
      "##ym": 1801,
      "thr": 1802,
      "##ert": 1803,
      "##ste": 1804,
      "chat": 1805,
      "lie": 1806,
      "amd": 1807,
      "##tem": 1808,
      "watching": 1809,
      "question": 1810,
      "bas": 1811,
      "komm": 1812,
      "list": 1813,
      "satur": 1814,
      "##ny": 1815,
      "##ze": 1816,
      "##!!": 1817,
      "inst": 1818,
      "##its": 1819,
      "##ically": 1820,
      "dep": 1821,
      "boat": 1822,
      "exact": 1823,
      "cold": 1824,
      "finish": 1825,
      "saturday": 1826,
      "ball": 1827,
      "et": 1828,
      "hmm": 1829,
      "key": 1830,
      "kann": 1831,
      "la": 1832,
      "mir": 1833,
      "max": 1834,
      "😂😂😂": 1835,
      "##og": 1836,
      "##che": 1837,
      "live": 1838,
      "##und": 1839,
      "##ider": 1840,
      "true": 1841,
      "hous": 1842,
      "geh": 1843,
      "count": 1844,
      "smth": 1845,
      "interest": 1846,
      "two": 1847,
      "decide": 1848,
      "cooking": 1849,
      "##partment": 1850,
      "bed": 1851,
      "own": 1852,
      "uber": 1853,
      "von": 1854,
      "told": 1855,
      "inv": 1856,
      "wed": 1857,
      "shop": 1858,
      "nobody": 1859,
      "reg": 1860,
      "super": 1861,
      "spot": 1862,
      "##ices": 1863,
      "meeting": 1864,
      "tweak": 1865,
      "etc": 1866,
      "ev": 1867,
      "fam": 1868,
      "ger": 1869,
      "hung": 1870,
      "ler": 1871,
      "link": 1872,
      "num": 1873,
      "oder": 1874,
      "pm": 1875,
      "poss": 1876,
      "##aus": 1877,
      "##ward": 1878,
      "##pal": 1879,
      "##att": 1880,
      "##itch": 1881,
      "##eal": 1882,
      "forgot": 1883,
      "##une": 1884,
      "whatever": 1885,
      "text": 1886,
      "club": 1887,
      "euro": 1888,
      "sunday": 1889,
      "inform": 1890,
      "liter": 1891,
      "music": 1892,
      "cuz": 1893,
      "sim": 1894,
      "sind": 1895,
      "ty": 1896,
      "vot": 1897,
      "##son": 1898,
      "##ying": 1899,
      "##ful": 1900,
      "##pon": 1901,
      "##ition": 1902,
      "##ities": 1903,
      "##ary": 1904,
      "being": 1905,
      "direct": 1906,
      "share": 1907,
      "gets": 1908,
      "##ently": 1909,
      "trans": 1910,
      "def": 1911,
      "##ations": 1912,
      "works": 1913,
      "artem": 1914,
      "started": 1915,
      "happy": 1916,
      "happened": 1917,
      "apartment": 1918,
      "dead": 1919,
      "eas": 1920,
      "pol": 1921,
      "pick": 1922,
      "piz": 1923,
      "ru": 1924,
      "##lier": 1925,
      "##ud": 1926,
      "##esse": 1927,
      "##ets": 1928,
      "while": 1929,
      "##vel": 1930,
      "truck": 1931,
      "joke": 1932,
      "brothers": 1933,
      "wrong": 1934,
      "sleeping": 1935,
      "paypal": 1936,
      "turn": 1937,
      "shower": 1938,
      "retard": 1939,
      "exactly": 1940,
      "literally": 1941,
      "23": 1942,
      "col": 1943,
      "fo": 1944,
      "games": 1945,
      "norm": 1946,
      "poll": 1947,
      "##zz": 1948,
      "having": 1949,
      "##oth": 1950,
      "bei": 1951,
      "##lem": 1952,
      "##air": 1953,
      "okis": 1954,
      "reme": 1955,
      "supp": 1956,
      "expl": 1957,
      "sheesh": 1958,
      "##load": 1959,
      "sex": 1960,
      "seems": 1961,
      "looking": 1962,
      "others": 1963,
      "write": 1964,
      "weekend": 1965,
      "sadly": 1966,
      "earlier": 1967,
      "indian": 1968,
      "high": 1969,
      "fix": 1970,
      "cake": 1971,
      "gen": 1972,
      "gut": 1973,
      "##nn": 1974,
      "thum": 1975,
      "ans": 1976,
      "inside": 1977,
      "##isch": 1978,
      "##ime": 1979,
      "upd": 1980,
      "doner": 1981,
      "##osed": 1982,
      "price": 1983,
      "herm": 1984,
      "move": 1985,
      "smo": 1986,
      "quick": 1987,
      "hahaha": 1988,
      "contr": 1989,
      "expens": 1990,
      "video": 1991,
      "ostbahn": 1992,
      "pizza": 1993,
      "act": 1994,
      "dass": 1995,
      "fest": 1996,
      "goo": 1997,
      "gir": 1998,
      "hit": 1999,
      "ja": 2000,
      "main": 2001,
      "om": 2002,
      "pp": 2003,
      "sn": 2004,
      "sea": 2005,
      "yess": 2006,
      "🤣🤣": 2007,
      "##less": 2008,
      "##ose": 2009,
      "##uc": 2010,
      "##uu": 2011,
      "##ace": 2012,
      "##ts": 2013,
      "##fu": 2014,
      "##mer": 2015,
      "stre": 2016,
      "ord": 2017,
      "##unch": 2018,
      "abt": 2019,
      "100": 2020,
      "ago": 2021,
      "ordered": 2022,
      "scre": 2023,
      "##raße": 2024,
      "disc": 2025,
      "respon": 2026,
      "month": 2027,
      "airport": 2028,
      "friday": 2029,
      "ostbahnhof": 2030,
      "av": 2031,
      "bor": 2032,
      "bil": 2033,
      "fast": 2034,
      "ice": 2035,
      "kid": 2036,
      "pic": 2037,
      "vor": 2038,
      "win": 2039,
      "##oh": 2040,
      "##ov": 2041,
      "##ys": 2042,
      "##mb": 2043,
      "throu": 2044,
      "##inge": 2045,
      "hal": 2046,
      "somebody": 2047,
      "drachen": 2048,
      "saying": 2049,
      "##ahahahah": 2050,
      "crazy": 2051,
      "unter": 2052,
      "problem": 2053,
      "##ails": 2054,
      "blue": 2055,
      "phot": 2056,
      "sitting": 2057,
      "houses": 2058,
      "tweaking": 2059,
      "expensive": 2060,
      "through": 2061,
      "aw": 2062,
      "bou": 2063,
      "ges": 2064,
      "giv": 2065,
      "post": 2066,
      "puss": 2067,
      "##ri": 2068,
      "##gan": 2069,
      "##more": 2070,
      "##atz": 2071,
      "##ower": 2072,
      "##cept": 2073,
      "anymore": 2074,
      "##eeee": 2075,
      "myself": 2076,
      "sud": 2077,
      "knows": 2078,
      "times": 2079,
      "year": 2080,
      "exam": 2081,
      "##ign": 2082,
      "secon": 2083,
      "##agen": 2084,
      "bhali": 2085,
      "##cture": 2086,
      "einen": 2087,
      "little": 2088,
      "woke": 2089,
      "extra": 2090,
      "depend": 2091,
      "lera": 2092,
      "answer": 2093,
      "girl": 2094,
      "drachenberg": 2095,
      "second": 2096,
      "came": 2097,
      "dark": 2098,
      "ent": 2099,
      "nur": 2100,
      "ping": 2101,
      "rain": 2102,
      "term": 2103,
      "um": 2104,
      "##nen": 2105,
      "##rr": 2106,
      "##oat": 2107,
      "##ired": 2108,
      "##ty": 2109,
      "##pect": 2110,
      "##kr": 2111,
      "##king": 2112,
      "##kes": 2113,
      "##ory": 2114,
      "##cht": 2115,
      "dir": 2116,
      "##als": 2117,
      "anyway": 2118,
      "level": 2119,
      "world": 2120,
      "bitte": 2121,
      "box": 2122,
      "sec": 2123,
      "tem": 2124,
      "uns": 2125,
      "schon": 2126,
      "cheaper": 2127,
      "training": 2128,
      "konnt": 2129,
      "possible": 2130,
      "remember": 2131,
      "thumbs": 2132,
      "discuss": 2133,
      "25": 2134,
      "bin": 2135,
      "bir": 2136,
      "care": 2137,
      "det": 2138,
      "hu": 2139,
      "hin": 2140,
      "head": 2141,
      "messe": 2142,
      "pop": 2143,
      "tal": 2144,
      "yup": 2145,
      "##cus": 2146,
      "##lot": 2147,
      "##gl": 2148,
      "##ka": 2149,
      "##lle": 2150,
      "##ats": 2151,
      "##esday": 2152,
      "stick": 2153,
      "sho": 2154,
      "doc": 2155,
      "door": 2156,
      "##ither": 2157,
      "##imme": 2158,
      "##vers": 2159,
      "somewhere": 2160,
      "such": 2161,
      "board": 2162,
      "coun": 2163,
      "euros": 2164,
      "funny": 2165,
      "???": 2166,
      "incl": 2167,
      "splitwise": 2168,
      "team": 2169,
      "running": 2170,
      "keys": 2171,
      "number": 2172,
      "festiv": 2173,
      "orders": 2174,
      "a1": 2175,
      "aut": 2176,
      "cab": 2177,
      "dum": 2178,
      "gimme": 2179,
      "hol": 2180,
      "pap": 2181,
      "song": 2182,
      "tatt": 2183,
      "tired": 2184,
      "vie": 2185,
      "wur": 2186,
      "##em": 2187,
      "##line": 2188,
      "##bn": 2189,
      "##tr": 2190,
      "##ger": 2191,
      "##atter": 2192,
      "chung": 2193,
      "stand": 2194,
      "plus": 2195,
      "anyways": 2196,
      "##irm": 2197,
      "allow": 2198,
      "leg": 2199,
      "wouldn": 2200,
      "##auf": 2201,
      "del": 2202,
      "tech": 2203,
      "thank": 2204,
      "under": 2205,
      "checked": 2206,
      "booked": 2207,
      "bhill": 2208,
      "drinking": 2209,
      "##ween": 2210,
      "takes": 2211,
      "passport": 2212,
      "turk": 2213,
      "airbn": 2214,
      "correct": 2215,
      "confirm": 2216,
      "break": 2217,
      "burger": 2218,
      "picture": 2219,
      "georgie": 2220,
      "throw": 2221,
      "##wards": 2222,
      "information": 2223,
      "directly": 2224,
      "easy": 2225,
      "tattoo": 2226,
      "gl": 2227,
      "hoo": 2228,
      "lost": 2229,
      "ma": 2230,
      "tab": 2231,
      "😅🤣": 2232,
      "##cy": 2233,
      "##ner": 2234,
      "##ress": 2235,
      "##ial": 2236,
      "##ww": 2237,
      "##ple": 2238,
      "##ons": 2239,
      "##itor": 2240,
      "island": 2241,
      "half": 2242,
      "##lex": 2243,
      "heerst": 2244,
      "able": 2245,
      "summ": 2246,
      "whoever": 2247,
      "##ages": 2248,
      "cheese": 2249,
      "asking": 2250,
      "arr": 2251,
      "##mel": 2252,
      "cringe": 2253,
      "between": 2254,
      "starting": 2255,
      "ordering": 2256,
      "##ibt": 2257,
      "wrote": 2258,
      "beaut": 2259,
      "##yyyy": 2260,
      "##ize": 2261,
      "##tenburg": 2262,
      "understandable": 2263,
      "during": 2264,
      "menu": 2265,
      "moment": 2266,
      "charlot": 2267,
      "bilal": 2268,
      "pussy": 2269,
      "festival": 2270,
      "charlottenburg": 2271,
      "ain": 2272,
      "cur": 2273,
      "euch": 2274,
      "fight": 2275,
      "june": 2276,
      "kr": 2277,
      "kill": 2278,
      "mid": 2279,
      "ob": 2280,
      "uhr": 2281,
      "zoo": 2282,
      "😅.": 2283,
      "##ca": 2284,
      "##hn": 2285,
      "##hm": 2286,
      "##la": 2287,
      "##ro": 2288,
      "##ph": 2289,
      "##⠄⠄": 2290,
      "tot": 2291,
      "anv": 2292,
      "shall": 2293,
      "##alt": 2294,
      "##allah": 2295,
      "life": 2296,
      "##una": 2297,
      "##eee": 2298,
      "##ahr": 2299,
      "comes": 2300,
      "mind": 2301,
      "rel": 2302,
      "##ical": 2303,
      "years": 2304,
      "sell": 2305,
      "seen": 2306,
      "##thday": 2307,
      "cloth": 2308,
      "bull": 2309,
      "haram": 2310,
      "germany": 2311,
      "albanian": 2312,
      "flights": 2313,
      "birthday": 2314,
      "cabin": 2315,
      "chungus": 2316,
      "bhillal": 2317,
      "summer": 2318,
      "fall": 2319,
      "fol": 2320,
      "gave": 2321,
      "hand": 2322,
      "los": 2323,
      "met": 2324,
      "mach": 2325,
      "nope": 2326,
      "power": 2327,
      "rather": 2328,
      "sbahn": 2329,
      "vis": 2330,
      "wild": 2331,
      "ya": 2332,
      "ze": 2333,
      "##ler": 2334,
      "##ien": 2335,
      "##sen": 2336,
      "##set": 2337,
      "##sider": 2338,
      "##aur": 2339,
      "##ped": 2340,
      "##ings": 2341,
      "##orca": 2342,
      "##ete": 2343,
      "hall": 2344,
      "cance": 2345,
      "diese": 2346,
      "##unk": 2347,
      "##ird": 2348,
      "prot": 2349,
      "##pty": 2350,
      "school": 2351,
      "means": 2352,
      "against": 2353,
      "##ommend": 2354,
      "fried": 2355,
      "email": 2356,
      "empty": 2357,
      "mfs": 2358,
      "friends": 2359,
      "##iful": 2360,
      "heard": 2361,
      "keine": 2362,
      "##ensee": 2363,
      "albania": 2364,
      "recommend": 2365,
      "speed": 2366,
      "course": 2367,
      "hungry": 2368,
      "normal": 2369,
      "goog": 2370,
      "avail": 2371,
      "talha": 2372,
      "beautiful": 2373,
      "anvit": 2374,
      "aver": 2375,
      "bow": 2376,
      "bal": 2377,
      "bahn": 2378,
      "baus": 2379,
      "cap": 2380,
      "either": 2381,
      "fie": 2382,
      "fair": 2383,
      "gibt": 2384,
      "hon": 2385,
      "mall": 2386,
      "mad": 2387,
      "mich": 2388,
      "sv": 2389,
      "tour": 2390,
      "ukr": 2391,
      "wie": 2392,
      "zum": 2393,
      "😭😭": 2394,
      "##ove": 2395,
      "##morrow": 2396,
      "##oud": 2397,
      "##anz": 2398,
      "##ona": 2399,
      "##orn": 2400,
      "##cha": 2401,
      "weather": 2402,
      "isn": 2403,
      "hab": 2404,
      "haben": 2405,
      "white": 2406,
      "##key": 2407,
      "mehr": 2408,
      "att": 2409,
      "area": 2410,
      "dope": 2411,
      "rem": 2412,
      "spr": 2413,
      "speak": 2414,
      "reason": 2415,
      "import": 2416,
      "manage": 2417,
      "drug": 2418,
      "tommorrow": 2419,
      "clue": 2420,
      "starts": 2421,
      "save": 2422,
      "setting": 2423,
      "clock": 2424,
      "restaur": 2425,
      "instead": 2426,
      "interested": 2427,
      "wedding": 2428,
      "gerne": 2429,
      "gener": 2430,
      "hermann": 2431,
      "wurde": 2432,
      "turkish": 2433,
      "airbnb": 2434,
      "clothes": 2435,
      "average": 2436,
      "honest": 2437,
      "restaurant": 2438,
      "!!": 2439,
      ":/": 2440,
      "ac": 2441,
      "bis": 2442,
      "dann": 2443,
      "fit": 2444,
      "gone": 2445,
      "hang": 2446,
      "jan": 2447,
      "kick": 2448,
      "loo": 2449,
      "mother": 2450,
      "machen": 2451,
      "que": 2452,
      "ra": 2453,
      "side": 2454,
      "##by": 2455,
      "##io": 2456,
      "##ved": 2457,
      "##mit": 2458,
      "##00": 2459,
      "##ana": 2460,
      "weird": 2461,
      "##arian": 2462,
      "beers": 2463,
      "##lect": 2464,
      "##urn": 2465,
      "organ": 2466,
      "##imes": 2467,
      "compl": 2468,
      "alle": 2469,
      "amount": 2470,
      "##acket": 2471,
      "word": 2472,
      "bois": 2473,
      "tele": 2474,
      "##aste": 2475,
      "##uchen": 2476,
      "study": 2477,
      "mold": 2478,
      "croat": 2479,
      "uni": 2480,
      "drinks": 2481,
      "##iert": 2482,
      "black": 2483,
      "intern": 2484,
      "finally": 2485,
      "watermel": 2486,
      "create": 2487,
      "creep": 2488,
      "few": 2489,
      "cups": 2490,
      "##appu": 2491,
      "event": 2492,
      "smoke": 2493,
      "omw": 2494,
      "##ohol": 2495,
      "bought": 2496,
      "depends": 2497,
      "huge": 2498,
      "available": 2499,
      "field": 2500,
      "mallorca": 2501,
      "important": 2502,
      "aight": 2503,
      "ben": 2504,
      "cat": 2505,
      "cute": 2506,
      "cult": 2507,
      "dates": 2508,
      "flo": 2509,
      "fact": 2510,
      "gappu": 2511,
      "ju": 2512,
      "luck": 2513,
      "line": 2514,
      "luna": 2515,
      "muss": 2516,
      "matter": 2517,
      "pot": 2518,
      "par": 2519,
      "ris": 2520,
      "rand": 2521,
      "russ": 2522,
      "son": 2523,
      "sense": 2524,
      "vac": 2525,
      "wont": 2526,
      "😂😂": 2527,
      "##cohol": 2528,
      "##eur": 2529,
      "##oj": 2530,
      "##ipp": 2531,
      "##use": 2532,
      "##ually": 2533,
      "##ude": 2534,
      "##dle": 2535,
      "##ga": 2536,
      "##gin": 2537,
      "##par": 2538,
      "##mes": 2539,
      "##inen": 2540,
      "##inite": 2541,
      "form": 2542,
      "chon": 2543,
      "chang": 2544,
      "##sel": 2545,
      "##semb": 2546,
      "station": 2547,
      "alone": 2548,
      "alcohol": 2549,
      "##urs": 2550,
      "light": 2551,
      "goes": 2552,
      "negot": 2553,
      "##gel": 2554,
      "rewe": 2555,
      "sport": 2556,
      "imag": 2557,
      "deli": 2558,
      "boy": 2559,
      "fucked": 2560,
      "##igen": 2561,
      "sheet": 2562,
      "202": 2563,
      "arab": 2564,
      "europe": 2565,
      "offer": 2566,
      "office": 2567,
      "warm": 2568,
      "##hhh": 2569,
      "info": 2570,
      "costs": 2571,
      "decid": 2572,
      "incre": 2573,
      "students": 2574,
      "##gram": 2575,
      "serious": 2576,
      "google": 2577,
      "bowling": 2578,
      "ukrain": 2579,
      "croatia": 2580,
      "random": 2581,
      "negoti": 2582,
      "deliver": 2583,
      "27": 2584,
      "29": 2585,
      "bes": 2586,
      "fre": 2587,
      "gym": 2588,
      "hate": 2589,
      "ir": 2590,
      "jimm": 2591,
      "mb": 2592,
      "mas": 2593,
      "net": 2594,
      "pin": 2595,
      "round": 2596,
      "sou": 2597,
      "vi": 2598,
      "wom": 2599,
      "yoo": 2600,
      "zur": 2601,
      "##hind": 2602,
      "##led": 2603,
      "##oom": 2604,
      "##oice": 2605,
      "##iß": 2606,
      "##wies": 2607,
      "##ti": 2608,
      "##jo": 2609,
      "##--": 2610,
      "##erg": 2611,
      "##ato": 2612,
      "##ative": 2613,
      "anno": 2614,
      "inde": 2615,
      "##etz": 2616,
      "##oof": 2617,
      "choo": 2618,
      "bel": 2619,
      "behind": 2620,
      "dies": 2621,
      "dog": 2622,
      "assemb": 2623,
      "##abe": 2624,
      "jokes": 2625,
      "imma": 2626,
      "yours": 2627,
      "##aster": 2628,
      "otherwise": 2629,
      "##earch": 2630,
      "clos": 2631,
      "class": 2632,
      "sometimes": 2633,
      "road": 2634,
      "enter": 2635,
      "quite": 2636,
      "prefer": 2637,
      "##ized": 2638,
      "sunset": 2639,
      "news": 2640,
      "infr": 2641,
      "added": 2642,
      "##ific": 2643,
      "account": 2644,
      "early": 2645,
      "illayda": 2646,
      "veget": 2647,
      "walking": 2648,
      "untill": 2649,
      "suggestions": 2650,
      "fire": 2651,
      "corona": 2652,
      "missing": 2653,
      "common": 2654,
      "hahahaha": 2655,
      "##🇦🇱🇦🇱🇦🇱🇦🇱": 2656,
      "shopping": 2657,
      "type": 2658,
      "retarded": 2659,
      "activ": 2660,
      "termin": 2661,
      "details": 2662,
      "paper": 2663,
      "bullsh": 2664,
      "drugs": 2665,
      "jimmy": 2666,
      "indeed": 2667,
      "28": 2668,
      "borrow": 2669,
      "camp": 2670,
      "dar": 2671,
      "gle": 2672,
      "lake": 2673,
      "land": 2674,
      "lady": 2675,
      "mal": 2676,
      "ment": 2677,
      "mail": 2678,
      "oof": 2679,
      "past": 2680,
      "pong": 2681,
      "sal": 2682,
      "tf": 2683,
      "wine": 2684,
      "wish": 2685,
      "##res": 2686,
      "##br": 2687,
      "##ift": 2688,
      "top": 2689,
      "##omod": 2690,
      "##itten": 2691,
      "wel": 2692,
      "##ised": 2693,
      "forget": 2694,
      "##cks": 2695,
      "stw": 2696,
      "soci": 2697,
      "trave": 2698,
      "prices": 2699,
      "spam": 2700,
      "##ilar": 2701,
      "##auen": 2702,
      "drive": 2703,
      "##agt": 2704,
      "ware": 2705,
      "everybody": 2706,
      "art": 2707,
      "aren": 2708,
      "##anger": 2709,
      "gru": 2710,
      "settle": 2711,
      "emoj": 2712,
      "##arkt": 2713,
      "##arket": 2714,
      "wird": 2715,
      "monday": 2716,
      "accomod": 2717,
      "beachv": 2718,
      "contact": 2719,
      "switch": 2720,
      "hold": 2721,
      "expect": 2722,
      "##⣿⣿⣿⣿⣿⣿⣿⣿": 2723,
      "missed": 2724,
      "durum": 2725,
      "konnen": 2726,
      "balls": 2727,
      "gehen": 2728,
      "explain": 2729,
      "sexist": 2730,
      "update": 2731,
      "street": 2732,
      "halal": 2733,
      "giving": 2734,
      "dumb": 2735,
      "allowed": 2736,
      "zeit": 2737,
      "queen": 2738,
      "imagine": 2739,
      "bullshit": 2740,
      "->": 2741,
      "03": 2742,
      "24": 2743,
      "cop": 2744,
      "cash": 2745,
      "date": 2746,
      "deal": 2747,
      "gate": 2748,
      "gree": 2749,
      "hur": 2750,
      "hum": 2751,
      "jem": 2752,
      "kl": 2753,
      "lord": 2754,
      "pak": 2755,
      "rad": 2756,
      "rent": 2757,
      "sy": 2758,
      "sus": 2759,
      "sick": 2760,
      "visa": 2761,
      "wow": 2762,
      "yall": 2763,
      "##ced": 2764,
      "##cil": 2765,
      "##ict": 2766,
      "##ual": 2767,
      "##ald": 2768,
      "##dit": 2769,
      "##gar": 2770,
      "##fort": 2771,
      "##fia": 2772,
      "##pel": 2773,
      "##ording": 2774,
      "##ath": 2775,
      "##ature": 2776,
      "wear": 2777,
      "webs": 2778,
      "##reuz": 2779,
      "ital": 2780,
      "haven": 2781,
      "##ster": 2782,
      "##arently": 2783,
      "##see": 2784,
      "##airs": 2785,
      "##asse": 2786,
      "ate": 2787,
      "doch": 2788,
      "doct": 2789,
      "##tern": 2790,
      "upload": 2791,
      "tried": 2792,
      "ref": 2793,
      "spiel": 2794,
      "space": 2795,
      "imp": 2796,
      "##ility": 2797,
      "using": 2798,
      "##platz": 2799,
      "tomas": 2800,
      "arnd": 2801,
      "##ensh": 2802,
      "engl": 2803,
      "weeks": 2804,
      "##elt": 2805,
      "##sss": 2806,
      "hella": 2807,
      "apparently": 2808,
      "##orgen": 2809,
      "vegg": 2810,
      "india": 2811,
      "##ieder": 2812,
      "ideas": 2813,
      "##burger": 2814,
      "kommen": 2815,
      "interesting": 2816,
      "voted": 2817,
      "police": 2818,
      "supposed": 2819,
      "respond": 2820,
      "raining": 2821,
      "konnte": 2822,
      "shoes": 2823,
      "heerstraße": 2824,
      "janitor": 2825,
      "creepy": 2826,
      "choose": 2827,
      "infront": 2828,
      "vegetarian": 2829,
      "jemand": 2830,
      "!!!": 2831,
      "((": 2832,
      "aay": 2833,
      "bb": 2834,
      "bunch": 2835,
      "cau": 2836,
      "coll": 2837,
      "foll": 2838,
      "gay": 2839,
      "lazy": 2840,
      "pf": 2841,
      "paid": 2842,
      "rice": 2843,
      "sich": 2844,
      "sign": 2845,
      "tut": 2846,
      "vb": 2847,
      "wall": 2848,
      "wake": 2849,
      "wind": 2850,
      "##come": 2851,
      "##cess": 2852,
      "##ht": 2853,
      "##hen": 2854,
      "##head": 2855,
      "##nesday": 2856,
      "##lic": 2857,
      "##bers": 2858,
      "##ior": 2859,
      "##ily": 2860,
      "##time": 2861,
      "##vious": 2862,
      "##pid": 2863,
      "##pack": 2864,
      "##ject": 2865,
      "##erv": 2866,
      "##ane": 2867,
      "##ones": 2868,
      "ins": 2869,
      "weak": 2870,
      "weber": 2871,
      "hair": 2872,
      "##str": 2873,
      "##owing": 2874,
      "soll": 2875,
      "needed": 2876,
      "priv": 2877,
      "job": 2878,
      "spend": 2879,
      "didnt": 2880,
      "worth": 2881,
      "damit": 2882,
      "##ument": 2883,
      "workout": 2884,
      "stupid": 2885,
      "consider": 2886,
      "levans": 2887,
      "##aaa": 2888,
      "couch": 2889,
      "couple": 2890,
      "##ared": 2891,
      "safe": 2892,
      "ciwans": 2893,
      "scamm": 2894,
      "disg": 2895,
      "minute": 2896,
      "turkey": 2897,
      "##view": 2898,
      "perf": 2899,
      "swimm": 2900,
      "confus": 2901,
      "lahmacuns": 2902,
      "burgers": 2903,
      "werden": 2904,
      "fridge": 2905,
      "carry": 2906,
      "##zeit": 2907,
      "finished": 2908,
      "geht": 2909,
      "wednesday": 2910,
      "definite": 2911,
      "apartments": 2912,
      "screensh": 2913,
      "bored": 2914,
      "kids": 2915,
      "pics": 2916,
      "##ova": 2917,
      "photo": 2918,
      "photos": 2919,
      "tempel": 2920,
      "council": 2921,
      "middle": 2922,
      "general": 2923,
      "honestly": 2924,
      "telegram": 2925,
      "2022": 2926,
      "##wiese": 2927,
      "website": 2928,
      "doctor": 2929,
      "weberwiese": 2930,
      "swimming": 2931,
      "definitely": 2932,
      "screenshot": 2933,
      "35": 2934,
      "dist": 2935,
      "dare": 2936,
      "hier": 2937,
      "jul": 2938,
      "kom": 2939,
      "kost": 2940,
      "lin": 2941,
      "mult": 2942,
      "np": 2943,
      "pos": 2944,
      "pomm": 2945,
      "rac": 2946,
      "sing": 2947,
      "sur": 2948,
      "wieder": 2949,
      "zus": 2950,
      "🤷🏻": 2951,
      "##hor": 2952,
      "##how": 2953,
      "##ned": 2954,
      "##oc": 2955,
      "##over": 2956,
      "##bh": 2957,
      "##ba": 2958,
      "##ted": 2959,
      "##vent": 2960,
      "##yss": 2961,
      "##fur": 2962,
      "##ket": 2963,
      "thurs": 2964,
      "toil": 2965,
      "##iter": 2966,
      "##stairs": 2967,
      "online": 2968,
      "meh": 2969,
      "meine": 2970,
      "ste": 2971,
      "star": 2972,
      "shot": 2973,
      "short": 2974,
      "##ures": 2975,
      "##ush": 2976,
      "brau": 2977,
      "living": 2978,
      "lives": 2979,
      "somehow": 2980,
      "##ters": 2981,
      "above": 2982,
      "sup": 2983,
      "##ieve": 2984,
      "alles": 2985,
      "##ump": 2986,
      "fucks": 2987,
      "examp": 2988,
      "##berge": 2989,
      "##ears": 2990,
      "##istan": 2991,
      "arg": 2992,
      "plants": 2993,
      "##meister": 2994,
      "agree": 2995,
      "unless": 2996,
      "##ape": 2997,
      "afterwards": 2998,
      "##hehe": 2999,
      "pablit": 3000,
      "offic": 3001,
      "interact": 3002,
      "poor": 3003,
      "disres": 3004,
      "feels": 3005,
      "according": 3006,
      "##haus": 3007,
      "holy": 3008,
      "kein": 3009,
      "cuphead": 3010,
      "cleaning": 3011,
      "spec": 3012,
      "##aaaaaaaa": 3013,
      "court": 3014,
      "basket": 3015,
      "listen": 3016,
      "similar": 3017,
      "votes": 3018,
      "cola": 3019,
      "##aufen": 3020,
      "hooping": 3021,
      "total": 3022,
      "balcon": 3023,
      "😭😭😭": 3024,
      "moldova": 3025,
      "watermelon": 3026,
      "culture": 3027,
      "floor": 3028,
      "decided": 3029,
      "ukraine": 3030,
      "assemble": 3031,
      "pakistan": 3032,
      "english": 3033,
      "veggie": 3034,
      "window": 3035,
      "perfect": 3036,
      "pommes": 3037,
      "thursday": 3038,
      "toilet": 3039,
      "disrespect": 3040,
      ").": 3041,
      "60": 3042,
      "ayy": 3043,
      "alex": 3044,
      "bat": 3045,
      "bab": 3046,
      "bul": 3047,
      "ca": 3048,
      "catch": 3049,
      "dabe": 3050,
      "ep": 3051,
      "gun": 3052,
      "hent": 3053,
      "host": 3054,
      "ig": 3055,
      "jetz": 3056,
      "lau": 3057,
      "mi": 3058,
      "mer": 3059,
      "must": 3060,
      "mate": 3061,
      "match": 3062,
      "morgen": 3063,
      "nick": 3064,
      "names": 3065,
      "nature": 3066,
      "opp": 3067,
      "pie": 3068,
      "pain": 3069,
      "ran": 3070,
      "sau": 3071,
      "tm": 3072,
      "tbh": 3073,
      "uff": 3074,
      "val": 3075,
      "vib": 3076,
      "yep": 3077,
      "##corn": 3078,
      "##ness": 3079,
      "##rd": 3080,
      "##rich": 3081,
      "##oint": 3082,
      "##uk": 3083,
      "##wald": 3084,
      "##mon": 3085,
      "##mach": 3086,
      "##markt": 3087,
      "##ken": 3088,
      "##komm": 3089,
      "##jet": 3090,
      "##ino": 3091,
      "##ork": 3092,
      "##itz": 3093,
      "##ited": 3094,
      "##ety": 3095,
      "##ama": 3096,
      "meat": 3097,
      "meme": 3098,
      "stfu": 3099,
      "story": 3100,
      "fries": 3101,
      "wann": 3102,
      "rep": 3103,
      "refer": 3104,
      "prom": 3105,
      "abyss": 3106,
      "joa": 3107,
      "leute": 3108,
      "react": 3109,
      "worst": 3110,
      "players": 3111,
      "timing": 3112,
      "deut": 3113,
      "fuckin": 3114,
      "##ules": 3115,
      "select": 3116,
      "looked": 3117,
      "##ptop": 3118,
      "prof": 3119,
      "divys": 3120,
      "checking": 3121,
      "##ungen": 3122,
      "##ichtig": 3123,
      "schl": 3124,
      "watched": 3125,
      "energ": 3126,
      "....": 3127,
      "##ieren": 3128,
      "build": 3129,
      "sending": 3130,
      "essen": 3131,
      "makes": 3132,
      "grill": 3133,
      "grune": 3134,
      "scam": 3135,
      "phys": 3136,
      "##els": 3137,
      "yepp": 3138,
      "bottle": 3139,
      "danke": 3140,
      "##ured": 3141,
      "wohn": 3142,
      "beaches": 3143,
      "cream": 3144,
      "slow": 3145,
      "marcus": 3146,
      "mostly": 3147,
      "propose": 3148,
      "basically": 3149,
      "laptop": 3150,
      "foot": 3151,
      "winter": 3152,
      "awake": 3153,
      "popcorn": 3154,
      "easyjet": 3155,
      "folks": 3156,
      "cancell": 3157,
      "attack": 3158,
      "internet": 3159,
      "vacation": 3160,
      "zuruck": 3161,
      "welcome": 3162,
      "travel": 3163,
      "030": 3164,
      "disgust": 3165,
      "confused": 3166,
      "posit": 3167,
      "example": 3168,
      "pablito": 3169,
      "dabei": 3170,
      "hentai": 3171,
      "jetzt": 3172,
      "grunewald": 3173,
      "05": 3174,
      "2nd": 3175,
      "52": 3176,
      "5th": 3177,
      "5pm": 3178,
      "8pm": 3179,
      "cities": 3180,
      "eu": 3181,
      "fly": 3182,
      "fake": 3183,
      "fil": 3184,
      "fish": 3185,
      "gar": 3186,
      "gang": 3187,
      "ganz": 3188,
      "jacket": 3189,
      "mun": 3190,
      "mist": 3191,
      "non": 3192,
      "nood": 3193,
      "ps": 3194,
      "pan": 3195,
      "page": 3196,
      "park": 3197,
      "ride": 3198,
      "sout": 3199,
      "swe": 3200,
      "size": 3201,
      "vers": 3202,
      "west": 3203,
      "woll": 3204,
      "witten": 3205,
      "##cr": 3206,
      "##nect": 3207,
      "##rw": 3208,
      "##ries": 3209,
      "##bl": 3210,
      "##ble": 3211,
      "##av": 3212,
      "##fach": 3213,
      "##man": 3214,
      "##kt": 3215,
      "##85": 3216,
      "##inger": 3217,
      "##ences": 3218,
      "##ream": 3219,
      "whos": 3220,
      "cha": 3221,
      "choice": 3222,
      "beat": 3223,
      "begin": 3224,
      "store": 3225,
      "alive": 3226,
      "alfia": 3227,
      "ofc": 3228,
      "heute": 3229,
      "##iding": 3230,
      "##idence": 3231,
      "comin": 3232,
      "wasn": 3233,
      "track": 3234,
      "amaz": 3235,
      "spo": 3236,
      "whenever": 3237,
      "played": 3238,
      "##ately": 3239,
      "drop": 3240,
      "drunk": 3241,
      "30pm": 3242,
      "seats": 3243,
      "shouldn": 3244,
      "tomato": 3245,
      "##assen": 3246,
      "plans": 3247,
      "coden": 3248,
      "enjo": 3249,
      "esc": 3250,
      "wrap": 3251,
      "einer": 3252,
      "telling": 3253,
      "previous": 3254,
      "taken": 3255,
      "##ants": 3256,
      "waren": 3257,
      "warum": 3258,
      "dance": 3259,
      "feeling": 3260,
      "dav": 3261,
      "dafur": 3262,
      "nearby": 3263,
      "realized": 3264,
      "waterg": 3265,
      "green": 3266,
      "difference": 3267,
      "ahahah": 3268,
      "##iiii": 3269,
      "tuesday": 3270,
      "##ammen": 3271,
      "reached": 3272,
      "hmmm": 3273,
      "kannst": 3274,
      "invite": 3275,
      "gerade": 3276,
      "focus": 3277,
      "fixed": 3278,
      "careful": 3279,
      "document": 3280,
      "techn": 3281,
      "techno": 3282,
      "breakf": 3283,
      "arriv": 3284,
      "accept": 3285,
      "july": 3286,
      "activities": 3287,
      "emoji": 3288,
      "italian": 3289,
      "julia": 3290,
      "single": 3291,
      "zusammen": 3292,
      "balcony": 3293,
      "nickn": 3294,
      "tmrw": 3295,
      "disgusting": 3296,
      "south": 3297,
      "wittenberge": 3298,
      "06": 3299,
      "08": 3300,
      "70": 3301,
      "ay": 3302,
      "cig": 3303,
      "dat": 3304,
      "fu": 3305,
      "flex": 3306,
      "gas": 3307,
      "gust": 3308,
      "hes": 3309,
      "kart": 3310,
      "mu": 3311,
      "mot": 3312,
      "master": 3313,
      "natur": 3314,
      "obs": 3315,
      "pur": 3316,
      "roll": 3317,
      "search": 3318,
      "tv": 3319,
      "vs": 3320,
      "vom": 3321,
      "wil": 3322,
      "##cri": 3323,
      "##list": 3324,
      "##rn": 3325,
      "##rid": 3326,
      "##ried": 3327,
      "##ock": 3328,
      "##off": 3329,
      "##ient": 3330,
      "##ges": 3331,
      "##fr": 3332,
      "##pr": 3333,
      "##ps": 3334,
      "##ml": 3335,
      "##mas": 3336,
      "##zen": 3337,
      "##zmarkt": 3338,
      "##ins": 3339,
      "##iness": 3340,
      "##ery": 3341,
      "##any": 3342,
      "##ench": 3343,
      "##ors": 3344,
      "##atr": 3345,
      "##ishing": 3346,
      "##eas": 3347,
      "chance": 3348,
      "##aming": 3349,
      "step": 3350,
      "along": 3351,
      "##aight": 3352,
      "platz": 3353,
      "shift": 3354,
      "dogg": 3355,
      "##ala": 3356,
      "##alle": 3357,
      "sol": 3358,
      "##ident": 3359,
      "##irt": 3360,
      "##geb": 3361,
      "##inky": 3362,
      "oki": 3363,
      "review": 3364,
      "pray": 3365,
      "press": 3366,
      "##iegen": 3367,
      "##ession": 3368,
      "leider": 3369,
      "##ackets": 3370,
      "##ppe": 3371,
      "##akes": 3372,
      "however": 3373,
      "haus2": 3374,
      "##ands": 3375,
      "shitty": 3376,
      "200": 3377,
      "conc": 3378,
      "conv": 3379,
      "convers": 3380,
      "connect": 3381,
      "daym": 3382,
      "ramons": 3383,
      "prov": 3384,
      "##vant": 3385,
      "closed": 3386,
      "cry": 3387,
      "download": 3388,
      "coz": 3389,
      "schne": 3390,
      "smash": 3391,
      "happens": 3392,
      "couldn": 3393,
      "##hroom": 3394,
      "einfach": 3395,
      "grand": 3396,
      "scared": 3397,
      "##enny": 3398,
      "flat": 3399,
      "##ments": 3400,
      "dunno": 3401,
      "final": 3402,
      "dude": 3403,
      "busy": 3404,
      "##orgir": 3405,
      "messages": 3406,
      "sieht": 3407,
      "local": 3408,
      "questions": 3409,
      "hatte": 3410,
      "skip": 3411,
      "commun": 3412,
      "record": 3413,
      "package": 3414,
      "proper": 3415,
      "owner": 3416,
      "regard": 3417,
      "register": 3418,
      "transport": 3419,
      "support": 3420,
      "updated": 3421,
      "control": 3422,
      "gives": 3423,
      "counter": 3424,
      "holzmarkt": 3425,
      "songs": 3426,
      "curr": 3427,
      "visit": 3428,
      "protect": 3429,
      "madrid": 3430,
      "russian": 3431,
      "##mester": 3432,
      "changed": 3433,
      "##selves": 3434,
      "woman": 3435,
      "believe": 3436,
      "28th": 3437,
      "society": 3438,
      "gruppe": 3439,
      "private": 3440,
      "komme": 3441,
      "superm": 3442,
      "specific": 3443,
      "laugh": 3444,
      "vibes": 3445,
      "##kommen": 3446,
      "deutsch": 3447,
      "watergate": 3448,
      "breakfast": 3449,
      "gusti": 3450,
      "schnell": 3451,
      "09": 3452,
      "1st": 3453,
      "3rd": 3454,
      "385": 3455,
      "48": 3456,
      "bill": 3457,
      "bday": 3458,
      "buss": 3459,
      "bank": 3460,
      "cut": 3461,
      "din": 3462,
      "dou": 3463,
      "danger": 3464,
      "eff": 3465,
      "fill": 3466,
      "fah": 3467,
      "fits": 3468,
      "felt": 3469,
      "hr": 3470,
      "horr": 3471,
      "ihn": 3472,
      "jump": 3473,
      "jenny": 3474,
      "lend": 3475,
      "lach": 3476,
      "loud": 3477,
      "med": 3478,
      "mag": 3479,
      "na": 3480,
      "nv": 3481,
      "naz": 3482,
      "nym": 3483,
      "oooo": 3484,
      "pull": 3485,
      "push": 3486,
      "ren": 3487,
      "roof": 3488,
      "rules": 3489,
      "sand": 3490,
      "sme": 3491,
      "sister": 3492,
      "wut": 3493,
      "witch": 3494,
      "wings": 3495,
      "yus": 3496,
      "##eg": 3497,
      "##ell": 3498,
      "##nam": 3499,
      "##lt": 3500,
      "##len": 3501,
      "##ike": 3502,
      "##ium": 3503,
      "##ule": 3504,
      "##uber": 3505,
      "##word": 3506,
      "##dd": 3507,
      "##tu": 3508,
      "##ging": 3509,
      "##fahr": 3510,
      "##pose": 3511,
      "##ker": 3512,
      "##kun": 3513,
      "##kreuz": 3514,
      "##zensee": 3515,
      "##que": 3516,
      "##??": 3517,
      "##ination": 3518,
      "##ern": 3519,
      "##ances": 3520,
      "##atically": 3521,
      "##chten": 3522,
      "weiß": 3523,
      "##reib": 3524,
      "##eta": 3525,
      "isis": 3526,
      "##isd": 3527,
      "##ision": 3528,
      "hast": 3529,
      "##uter": 3530,
      "##ution": 3531,
      "forest": 3532,
      "chr": 3533,
      "stor": 3534,
      "##aschen": 3535,
      "##ldung": 3536,
      "plot": 3537,
      "plates": 3538,
      "limit": 3539,
      "liga": 3540,
      "##unter": 3541,
      "french": 3542,
      "hehehe": 3543,
      "getir": 3544,
      "##ctures": 3545,
      "tru": 3546,
      "pract": 3547,
      "print": 3548,
      "amen": 3549,
      "lem": 3550,
      "spak": 3551,
      "spark": 3552,
      "##icy": 3553,
      "##aining": 3554,
      "##beit": 3555,
      "##ume": 3556,
      "learn": 3557,
      "##anden": 3558,
      "##ular": 3559,
      "exc": 3560,
      "exist": 3561,
      "divis": 3562,
      "##iga": 3563,
      "sel": 3564,
      "seat": 3565,
      "separ": 3566,
      "10min": 3567,
      "backpack": 3568,
      "seem": 3569,
      "##dern": 3570,
      "wald": 3571,
      "20min": 3572,
      "joining": 3573,
      "click": 3574,
      "doesnt": 3575,
      "downstairs": 3576,
      "coach": 3577,
      "##apter": 3578,
      "putting": 3579,
      "sav": 3580,
      "slept": 3581,
      "scary": 3582,
      "longer": 3583,
      "staying": 3584,
      "straight": 3585,
      "##acity": 3586,
      "ends": 3587,
      "suggested": 3588,
      "##immt": 3589,
      "return": 3590,
      "ski": 3591,
      "pictures": 3592,
      "bags": 3593,
      "videos": 3594,
      "company": 3595,
      "georgian": 3596,
      "superior": 3597,
      "events": 3598,
      "family": 3599,
      "hunger": 3600,
      "clubhaus": 3601,
      "informat": 3602,
      "normally": 3603,
      "herman": 3604,
      "🤣🤣🤣": 3605,
      "##fully": 3606,
      "months": 3607,
      "girls": 3608,
      "dirty": 3609,
      "secur": 3610,
      "includ": 3611,
      "autom": 3612,
      "view": 3613,
      "hoop": 3614,
      "totally": 3615,
      "capacity": 3616,
      "motherf": 3617,
      "risk": 3618,
      "increas": 3619,
      "increase": 3620,
      "seriously": 3621,
      "negotiate": 3622,
      "annoying": 3623,
      "pasta": 3624,
      "topic": 3625,
      "beachvolley": 3626,
      "greece": 3627,
      "human": 3628,
      "bbq": 3629,
      "follow": 3630,
      "tutti": 3631,
      "tempelhof": 3632,
      "kosten": 3633,
      "lines": 3634,
      "baby": 3635,
      "energy": 3636,
      "mistake": 3637,
      "codenames": 3638,
      "cigare": 3639,
      "horror": 3640,
      "nvm": 3641,
      "smell": 3642,
      "##kunft": 3643,
      "\".": 3644,
      "),": 3645,
      "ahh": 3646,
      "b2": 3647,
      "balk": 3648,
      "bund": 3649,
      "burn": 3650,
      "dut": 3651,
      "dest": 3652,
      "deep": 3653,
      "dating": 3654,
      "ey": 3655,
      "edit": 3656,
      "fan": 3657,
      "fig": 3658,
      "fahr": 3659,
      "gooo": 3660,
      "gears": 3661,
      "hy": 3662,
      "han": 3663,
      "hood": 3664,
      "hil": 3665,
      "hrs": 3666,
      "ive": 3667,
      "jas": 3668,
      "ko": 3669,
      "ka": 3670,
      "kle": 3671,
      "lat": 3672,
      "lab": 3673,
      "market": 3674,
      "none": 3675,
      "owe": 3676,
      "piss": 3677,
      "pub": 3678,
      "rom": 3679,
      "rich": 3680,
      "site": 3681,
      "ter": 3682,
      "tir": 3683,
      "tik": 3684,
      "taste": 3685,
      "vol": 3686,
      "wah": 3687,
      "♂🤷": 3688,
      "❤❤": 3689,
      "##cle": 3690,
      "##camp": 3691,
      "##ew": 3692,
      "##ham": 3693,
      "##ney": 3694,
      "##ration": 3695,
      "##ria": 3696,
      "##rance": 3697,
      "##bed": 3698,
      "##bere": 3699,
      "##ire": 3700,
      "##iver": 3701,
      "##ially": 3702,
      "##ues": 3703,
      "##uct": 3704,
      "##uding": 3705,
      "##gage": 3706,
      "##fest": 3707,
      "##pong": 3708,
      "##ky": 3709,
      "##ии": 3710,
      "##ли": 3711,
      "therm": 3712,
      "##ours": 3713,
      "##anze": 3714,
      "tor": 3715,
      "tower": 3716,
      "town": 3717,
      "##llow": 3718,
      "anle": 3719,
      "anime": 3720,
      "inj": 3721,
      "##itung": 3722,
      "wet": 3723,
      "weed": 3724,
      "iss": 3725,
      "##iso": 3726,
      "##isp": 3727,
      "##iser": 3728,
      "##ots": 3729,
      "##east": 3730,
      "##sten": 3731,
      "##ooooo": 3732,
      "forg": 3733,
      "child": 3734,
      "##arf": 3735,
      "##arak": 3736,
      "##levant": 3737,
      "stun": 3738,
      "stuck": 3739,
      "shut": 3740,
      "liqu": 3741,
      "wash": 3742,
      "trap": 3743,
      "minions": 3744,
      "##olog": 3745,
      "regel": 3746,
      "pres": 3747,
      "subs": 3748,
      "joh": 3749,
      "spand": 3750,
      "spices": 3751,
      "##enden": 3752,
      "##ila": 3753,
      "letting": 3754,
      "##ffe": 3755,
      "hausmeister": 3756,
      "drum": 3757,
      "##ander": 3758,
      "exper": 3759,
      "except": 3760,
      "##ache": 3761,
      "semester": 3762,
      "##agon": 3763,
      "##agag": 3764,
      "conver": 3765,
      "project": 3766,
      "##twort": 3767,
      "chilli": 3768,
      "asks": 3769,
      "bringing": 3770,
      "herr": 3771,
      "moving": 3772,
      "##ahahaha": 3773,
      "##meldung": 3774,
      "##ension": 3775,
      "sche": 3776,
      "calling": 3777,
      "rob": 3778,
      "eng": 3779,
      "barcamp": 3780,
      "thingy": 3781,
      "writ": 3782,
      "grow": 3783,
      "grab": 3784,
      "parties": 3785,
      "blank": 3786,
      "##weis": 3787,
      "emp": 3788,
      "##hhhh": 3789,
      "twice": 3790,
      "asses": 3791,
      "business": 3792,
      "monster": 3793,
      "urg": 3794,
      "woche": 3795,
      "gheorge": 3796,
      "ern": 3797,
      "stopped": 3798,
      "situ": 3799,
      "slap": 3800,
      "500": 3801,
      "##quin": 3802,
      "baggage": 3803,
      "##cially": 3804,
      "whatsapp": 3805,
      "liebe": 3806,
      "based": 3807,
      "kommt": 3808,
      "😂😂😂😂": 3809,
      "invol": 3810,
      "transl": 3811,
      "transact": 3812,
      "turned": 3813,
      "##zzzz": 3814,
      "sneak": 3815,
      "screen": 3816,
      "##ahahahahahahahah": 3817,
      "unterkunft": 3818,
      "pingpong": 3819,
      "unsere": 3820,
      "discussion": 3821,
      "##lleicht": 3822,
      "including": 3823,
      "vielleicht": 3824,
      "legs": 3825,
      "delete": 3826,
      "confirmed": 3827,
      "heerstr": 3828,
      "arrive": 3829,
      "##hmen": 3830,
      "##phensee": 3831,
      "friedrich": 3832,
      "habt": 3833,
      "complete": 3834,
      "facts": 3835,
      "sondern": 3836,
      "arabic": 3837,
      "mask": 3838,
      "vibe": 3839,
      "##----": 3840,
      "annoy": 3841,
      "camping": 3842,
      "gleich": 3843,
      "accomodation": 3844,
      "cops": 3845,
      "radler": 3846,
      "!!!!": 3847,
      "aayy": 3848,
      "caught": 3849,
      "distance": 3850,
      "basketball": 3851,
      "##ointment": 3852,
      "joaquin": 3853,
      "football": 3854,
      "positive": 3855,
      "noodles": 3856,
      "beginning": 3857,
      "enjoy": 3858,
      "davon": 3859,
      "purpose": 3860,
      "doggo": 3861,
      "connection": 3862,
      "supermarket": 3863,
      "nazi": 3864,
      "nymphensee": 3865,
      "lemme": 3866,
      "security": 3867,
      "included": 3868,
      "motherfuck": 3869,
      "♂🤷🏻": 3870,
      "anleitung": 3871,
      "spandau": 3872,
      "07": 3873,
      "02": 3874,
      "33": 3875,
      "90": 3876,
      ":|": 3877,
      "au": 3878,
      "aa": 3879,
      "a3": 3880,
      "ahhh": 3881,
      "bere": 3882,
      "ble": 3883,
      "bur": 3884,
      "bah": 3885,
      "bist": 3886,
      "borgir": 3887,
      "cow": 3888,
      "cal": 3889,
      "corr": 3890,
      "dm": 3891,
      "dorm": 3892,
      "est": 3893,
      "egg": 3894,
      "fy": 3895,
      "face": 3896,
      "gh": 3897,
      "gather": 3898,
      "hind": 3899,
      "hist": 3900,
      "ik": 3901,
      "jud": 3902,
      "km": 3903,
      "kur": 3904,
      "kra": 3905,
      "kino": 3906,
      "lm": 3907,
      "lame": 3908,
      "lma": 3909,
      "lang": 3910,
      "lying": 3911,
      "mub": 3912,
      "nam": 3913,
      "oper": 3914,
      "pet": 3915,
      "pill": 3916,
      "perm": 3917,
      "pants": 3918,
      "rout": 3919,
      "raus": 3920,
      "richtig": 3921,
      "rackets": 3922,
      "sid": 3923,
      "tag": 3924,
      "vill": 3925,
      "w2": 3926,
      "wood": 3927,
      "waste": 3928,
      "zah": 3929,
      "zwe": 3930,
      "не": 3931,
      "💀💀": 3932,
      "##cing": 3933,
      "##ng": 3934,
      "##ls": 3935,
      "##ring": 3936,
      "##back": 3937,
      "##bull": 3938,
      "##ias": 3939,
      "##ience": 3940,
      "##somm": 3941,
      "##acc": 3942,
      "##dies": 3943,
      "##test": 3944,
      "##yer": 3945,
      "##yle": 3946,
      "##ged": 3947,
      "##fa": 3948,
      "##fen": 3949,
      "##fel": 3950,
      "##full": 3951,
      "##pool": 3952,
      "##punk": 3953,
      "##mann": 3954,
      "##ko": 3955,
      "##kin": 3956,
      "thre": 3957,
      "three": 3958,
      "##inal": 3959,
      "##inion": 3960,
      "##erbe": 3961,
      "theos": 3962,
      "towards": 3963,
      "##ene": 3964,
      "##orce": 3965,
      "antwort": 3966,
      "anmeldung": 3967,
      "##oming": 3968,
      "intr": 3969,
      "weil": 3970,
      "##reme": 3971,
      "##etic": 3972,
      "isnt": 3973,
      "##ism": 3974,
      "##ischen": 3975,
      "hack": 3976,
      "havent": 3977,
      "##straße": 3978,
      "forever": 3979,
      "##amn": 3980,
      "##vember": 3981,
      "##ckt": 3982,
      "##cken": 3983,
      "beha": 3984,
      "bekommen": 3985,
      "##leep": 3986,
      "steal": 3987,
      "dich": 3988,
      "died": 3989,
      "alot": 3990,
      "##lden": 3991,
      "##urt": 3992,
      "##uring": 3993,
      "bru": 3994,
      "brain": 3995,
      "liver": 3996,
      "havel": 3997,
      "nein": 3998,
      "nehmen": 3999,
      "anywhere": 4000,
      "fru": 4001,
      "##adan": 4002,
      "november": 4003,
      "##ahh": 4004,
      "##ides": 4005,
      "asleep": 4006,
      "##ention": 4007,
      "##entlich": 4008,
      "trade": 4009,
      "##ested": 4010,
      "rece": 4011,
      "recon": 4012,
      "prin": 4013,
      "##ief": 4014,
      "allah": 4015,
      "among": 4016,
      "joy": 4017,
      "leka": 4018,
      "leila": 4019,
      "outf": 4020,
      "reading": 4021,
      "##icle": 4022,
      "manag": 4023,
      "##aub": 4024,
      "##aube": 4025,
      "##akt": 4026,
      "knew": 4027,
      "##ains": 4028,
      "player": 4029,
      "dry": 4030,
      "drach": 4031,
      "boys": 4032,
      "bruhh": 4033,
      "##iger": 4034,
      "##igger": 4035,
      "sein": 4036,
      "seid": 4037,
      "teuf": 4038,
      "##uche": 4039,
      "used": 4040,
      "usually": 4041,
      "seeing": 4042,
      "ramadan": 4043,
      "everywhere": 4044,
      "15min": 4045,
      "##asses": 4046,
      "broken": 4047,
      "arm": 4048,
      "arbeit": 4049,
      "clear": 4050,
      "cloud": 4051,
      "planned": 4052,
      "crow": 4053,
      "crim": 4054,
      "crates": 4055,
      "##ensberg": 4056,
      "ground": 4057,
      "cover": 4058,
      "coast": 4059,
      "groups": 4060,
      "##ivid": 4061,
      "become": 4062,
      "##ibly": 4063,
      "##ibility": 4064,
      "lose": 4065,
      "##iple": 4066,
      "barbe": 4067,
      "nichts": 4068,
      "espe": 4069,
      "##annes": 4070,
      "actual": 4071,
      "##well": 4072,
      "##yyy": 4073,
      "##cco": 4074,
      "flaschen": 4075,
      "personal": 4076,
      "opinion": 4077,
      "addition": 4078,
      "research": 4079,
      "litzensee": 4080,
      "bhallis": 4081,
      "decision": 4082,
      "vegan": 4083,
      "musli": 4084,
      "##tok": 4085,
      "individ": 4086,
      "stru": 4087,
      "strange": 4088,
      "contin": 4089,
      "##haallah": 4090,
      "##iko": 4091,
      "ausland": 4092,
      "keb": 4093,
      "mensatr": 4094,
      "teams": 4095,
      "demo": 4096,
      "wonder": 4097,
      "comming": 4098,
      "extension": 4099,
      "student": 4100,
      "pix": 4101,
      "##lichen": 4102,
      "deser": 4103,
      "hahahahahah": 4104,
      "redbull": 4105,
      "tests": 4106,
      "lieber": 4107,
      "housing": 4108,
      "famous": 4109,
      "guten": 4110,
      "contrib": 4111,
      "contract": 4112,
      "season": 4113,
      "yesss": 4114,
      "##uuu": 4115,
      "100ml": 4116,
      "sudden": 4117,
      "depending": 4118,
      "entrance": 4119,
      "heading": 4120,
      "stickers": 4121,
      "boardg": 4122,
      "include": 4123,
      "standing": 4124,
      "correctly": 4125,
      "throwing": 4126,
      "glaube": 4127,
      "##wwww": 4128,
      "##altung": 4129,
      "relax": 4130,
      "falls": 4131,
      "cancel": 4132,
      "protest": 4133,
      "loool": 4134,
      "parade": 4135,
      "risiko": 4136,
      "european": 4137,
      "mashaallah": 4138,
      "soup": 4139,
      "closing": 4140,
      "preference": 4141,
      "##🇦🇱🇦🇱🇦🇱🇦🇱🇦🇱🇦🇱🇦🇱🇦🇱": 4142,
      "mention": 4143,
      "salad": 4144,
      "hurry": 4145,
      "(((": 4146,
      "collect": 4147,
      "scammed": 4148,
      "multiple": 4149,
      "##horde": 4150,
      "braucht": 4151,
      "official": 4152,
      "bulgar": 4153,
      "episo": 4154,
      "ign": 4155,
      "sauce": 4156,
      "wohnung": 4157,
      "westkreuz": 4158,
      "amazon": 4159,
      "arrived": 4160,
      "nickname": 4161,
      "reviews": 4162,
      "convince": 4163,
      "conversation": 4164,
      "daymn": 4165,
      "regarding": 4166,
      "dinner": 4167,
      "lachmacun": 4168,
      "christ": 4169,
      "spako": 4170,
      "informatik": 4171,
      "automatically": 4172,
      "balkan": 4173,
      "bundes": 4174,
      "tiktok": 4175,
      "forgive": 4176,
      "liquid": 4177,
      "johannes": 4178,
      "situation": 4179,
      "fyi": 4180,
      "lmk": 4181,
      "mubarak": 4182,
      "liverpool": 4183,
      "drachensberg": 4184,
      "especially": 4185,
      "mensatruck": 4186,
      "episode": 4187,
      "+/": 4188,
      ".-": 4189,
      "31": 4190,
      "49": 4191,
      "5min": 4192,
      "75": 4193,
      "80": 4194,
      "?!": 4195,
      "?'": 4196,
      "`)": 4197,
      "aug": 4198,
      "cz": 4199,
      "cas": 4200,
      "cum": 4201,
      "cine": 4202,
      "cast": 4203,
      "cuc": 4204,
      "dj": 4205,
      "ded": 4206,
      "dah": 4207,
      "disa": 4208,
      "dying": 4209,
      "dream": 4210,
      "dalle": 4211,
      "eid": 4212,
      "etern": 4213,
      "fac": 4214,
      "fert": 4215,
      "fav": 4216,
      "fishing": 4217,
      "gi": 4218,
      "gam": 4219,
      "gard": 4220,
      "gift": 4221,
      "hea": 4222,
      "hive": 4223,
      "jer": 4224,
      "jun": 4225,
      "kar": 4226,
      "kamp": 4227,
      "kiss": 4228,
      "kreuz": 4229,
      "kinky": 4230,
      "keta": 4231,
      "les": 4232,
      "lay": 4233,
      "lad": 4234,
      "loooo": 4235,
      "lunch": 4236,
      "mark": 4237,
      "mik": 4238,
      "meas": 4239,
      "noo": 4240,
      "nort": 4241,
      "nap": 4242,
      "nord": 4243,
      "oct": 4244,
      "pool": 4245,
      "path": 4246,
      "ring": 4247,
      "rat": 4248,
      "racket": 4249,
      "sat": 4250,
      "squ": 4251,
      "sagen": 4252,
      "session": 4253,
      "ten": 4254,
      "tre": 4255,
      "tas": 4256,
      "tast": 4257,
      "tip": 4258,
      "tree": 4259,
      "vid": 4260,
      "voice": 4261,
      "vacc": 4262,
      "wdy": 4263,
      "wide": 4264,
      "wallah": 4265,
      "yuss": 4266,
      "zoom": 4267,
      "по": 4268,
      "🇦🇱": 4269,
      "👍🏻": 4270,
      "##hal": 4271,
      "##hail": 4272,
      "##ns": 4273,
      "##nung": 4274,
      "##let": 4275,
      "##lagen": 4276,
      "##liga": 4277,
      "##ror": 4278,
      "##row": 4279,
      "##overs": 4280,
      "##ih": 4281,
      "##iest": 4282,
      "##iff": 4283,
      "##ifi": 4284,
      "##iots": 4285,
      "##uer": 4286,
      "##uum": 4287,
      "##uage": 4288,
      "##aas": 4289,
      "##work": 4290,
      "##dor": 4291,
      "##dict": 4292,
      "##tz": 4293,
      "##vies": 4294,
      "##yr": 4295,
      "##gred": 4296,
      "##ро": 4297,
      "##fl": 4298,
      "##fli": 4299,
      "##phe": 4300,
      "##mers": 4301,
      "##kn": 4302,
      "##kl": 4303,
      "##kle": 4304,
      "##kuchen": 4305,
      "##ßen": 4306,
      "##20": 4307,
      "##100": 4308,
      "##je": 4309,
      "##just": 4310,
      "##^^": 4311,
      "ther": 4312,
      "##ouse": 4313,
      "##ought": 4314,
      "theod": 4315,
      "##onym": 4316,
      "##aten": 4317,
      "##eskin": 4318,
      "ann": 4319,
      "ang": 4320,
      "anim": 4321,
      "int": 4322,
      "ingred": 4323,
      "##ital": 4324,
      "##chi": 4325,
      "##cher": 4326,
      "##ret": 4327,
      "##reich": 4328,
      "##reci": 4329,
      "##eten": 4330,
      "##eted": 4331,
      "##ische": 4332,
      "ham": 4333,
      "hause": 4334,
      "##eden": 4335,
      "wher": 4336,
      "##stag": 4337,
      "##owe": 4338,
      "foreskin": 4339,
      "chapter": 4340,
      "##arant": 4341,
      "bez": 4342,
      "mein": 4343,
      "mega": 4344,
      "memes": 4345,
      "stalk": 4346,
      "dibs": 4347,
      "dimas": 4348,
      "##asst": 4349,
      "shar": 4350,
      "doin": 4351,
      "##cel": 4352,
      "##ury": 4353,
      "##ality": 4354,
      "##allen": 4355,
      "brought": 4356,
      "sofort": 4357,
      "##unte": 4358,
      "neg": 4359,
      "fruh": 4360,
      "##img": 4361,
      "heuss": 4362,
      "##veral": 4363,
      "guest": 4364,
      "##idor": 4365,
      "aswell": 4366,
      "##ction": 4367,
      "##iro": 4368,
      "comb": 4369,
      "comfort": 4370,
      "wass": 4371,
      "trigger": 4372,
      "##osse": 4373,
      "repl": 4374,
      "report": 4375,
      "requ": 4376,
      "proll": 4377,
      "prime": 4378,
      "abh": 4379,
      "abs": 4380,
      "sucks": 4381,
      "##ieg": 4382,
      "allen": 4383,
      "amb": 4384,
      "joking": 4385,
      "spat": 4386,
      "spre": 4387,
      "spater": 4388,
      "spike": 4389,
      "##pping": 4390,
      "##ended": 4391,
      "immer": 4392,
      "##ilities": 4393,
      "worries": 4394,
      "thinks": 4395,
      "##uhr": 4396,
      "dein": 4397,
      "deine": 4398,
      "boot": 4399,
      "damage": 4400,
      "##ando": 4401,
      "##ulation": 4402,
      "300": 4403,
      "excel": 4404,
      "##nth": 4405,
      "##lock": 4406,
      "sehr": 4407,
      "several": 4408,
      "teos": 4409,
      "##astic": 4410,
      "##ucht": 4411,
      "##box": 4412,
      "201": 4413,
      "cond": 4414,
      "concept": 4415,
      "##ption": 4416,
      "themselves": 4417,
      "##play": 4418,
      "150": 4419,
      "##ists": 4420,
      "broke": 4421,
      "clim": 4422,
      "claas": 4423,
      "afr": 4424,
      "mod": 4425,
      "movies": 4426,
      "crate": 4427,
      "crash": 4428,
      "eats": 4429,
      "##uel": 4430,
      "ages": 4431,
      "unc": 4432,
      "##gga": 4433,
      "gegen": 4434,
      "gemach": 4435,
      "code": 4436,
      "scha": 4437,
      "himself": 4438,
      "volleyballsomm": 4439,
      "ways": 4440,
      "advan": 4441,
      "adjust": 4442,
      "log": 4443,
      "cooler": 4444,
      "verste": 4445,
      "verude": 4446,
      "meant": 4447,
      "tryna": 4448,
      "putin": 4449,
      "##dem": 4450,
      "finding": 4451,
      "tells": 4452,
      "growing": 4453,
      "prep": 4454,
      "preise": 4455,
      "partic": 4456,
      "bla": 4457,
      "blin": 4458,
      "bless": 4459,
      "beamer": 4460,
      "lately": 4461,
      "leftovers": 4462,
      "##ommod": 4463,
      "##yyeee": 4464,
      "##izule": 4465,
      "##racy": 4466,
      "yellow": 4467,
      "talks": 4468,
      "talked": 4469,
      "##ssss": 4470,
      "helped": 4471,
      "password": 4472,
      "address": 4473,
      "showed": 4474,
      "residence": 4475,
      "tonic": 4476,
      "apply": 4477,
      "appointment": 4478,
      "appreci": 4479,
      "##tttt": 4480,
      "zug": 4481,
      "cooked": 4482,
      "woah": 4483,
      "##ife": 4484,
      "##ify": 4485,
      "access": 4486,
      "accommod": 4487,
      "illeg": 4488,
      "aufge": 4489,
      "strong": 4490,
      "feed": 4491,
      "heart": 4492,
      "points": 4493,
      "slight": 4494,
      "lahmach": 4495,
      "demon": 4496,
      "skill": 4497,
      "commands": 4498,
      "ahead": 4499,
      "einem": 4500,
      "extreme": 4501,
      "bread": 4502,
      "werde": 4503,
      "##ferando": 4504,
      "descri": 4505,
      "lovepar": 4506,
      "hotel": 4507,
      "##cial": 4508,
      "packing": 4509,
      "##gress": 4510,
      "##amming": 4511,
      "propos": 4512,
      "propert": 4513,
      "series": 4514,
      "throat": 4515,
      "lieferando": 4516,
      "depress": 4517,
      "law": 4518,
      "laund": 4519,
      "##chein": 4520,
      "##cheid": 4521,
      "country": 4522,
      "invited": 4523,
      "numbers": 4524,
      "sundays": 4525,
      "deadline": 4526,
      "explos": 4527,
      "##nnn": 4528,
      "controll": 4529,
      "omg": 4530,
      "snitch": 4531,
      "##ucke": 4532,
      "respons": 4533,
      "responding": 4534,
      "boring": 4535,
      "boun": 4536,
      "gesch": 4537,
      "gescha": 4538,
      "popp": 4539,
      "viele": 4540,
      "##truck": 4541,
      "tables": 4542,
      "islands": 4543,
      "cheeseburger": 4544,
      "fighting": 4545,
      "##phones": 4546,
      "folk": 4547,
      "machine": 4548,
      "diesem": 4549,
      "tournam": 4550,
      "sprint": 4551,
      "speaker": 4552,
      "speaking": 4553,
      "hermannplatz": 4554,
      "looool": 4555,
      "organize": 4556,
      "words": 4557,
      "studying": 4558,
      "watermelons": 4559,
      "russia": 4560,
      "29th": 4561,
      "bescheid": 4562,
      "iron": 4563,
      "netfli": 4564,
      "pinizule": 4565,
      "women": 4566,
      "##ißt": 4567,
      "dieser": 4568,
      "activity": 4569,
      "mentally": 4570,
      "article": 4571,
      "beachvolleyball": 4572,
      "greek": 4573,
      "klar": 4574,
      "uploaded": 4575,
      "cauz": 4576,
      "wallet": 4577,
      "##ervation": 4578,
      "npc": 4579,
      "racist": 4580,
      "argue": 4581,
      "interaction": 4582,
      "pakistani": 4583,
      "bathroom": 4584,
      "gunst": 4585,
      "mercy": 4586,
      "oppos": 4587,
      "piece": 4588,
      "cancelled": 4589,
      "cancellation": 4590,
      "psy": 4591,
      "sweet": 4592,
      "tomatoes": 4593,
      "flexible": 4594,
      "muahahaha": 4595,
      "motiv": 4596,
      "wilmers": 4597,
      "concert": 4598,
      "communic": 4599,
      "currently": 4600,
      "bussing": 4601,
      "doub": 4602,
      "dangerous": 4603,
      "effort": 4604,
      "fahre": 4605,
      "renov": 4606,
      "##tube": 4607,
      "separately": 4608,
      "fahren": 4609,
      "tirana": 4610,
      "volunte": 4611,
      "thermos": 4612,
      "injured": 4613,
      "stunde": 4614,
      "engine": 4615,
      "ernst": 4616,
      "corridor": 4617,
      "hindi": 4618,
      "history": 4619,
      "language": 4620,
      "route": 4621,
      "zwei": 4622,
      "##erbehorde": 4623,
      "reconsider": 4624,
      "crowd": 4625,
      "additional": 4626,
      "continue": 4627,
      "kebab": 4628,
      "pixar": 4629,
      "contribute": 4630,
      "boardgames": 4631,
      "bundesliga": 4632,
      "+/-": 4633,
      "august": 4634,
      "cucum": 4635,
      "disapp": 4636,
      "kreuzberg": 4637,
      "north": 4638,
      "task": 4639,
      "wdym": 4640,
      "wallahi": 4641,
      "prolly": 4642,
      "gemacht": 4643,
      "volleyballsommer": 4644,
      "verudela": 4645,
      "illegal": 4646,
      "loveparade": 4647,
      "property": 4648,
      "laundry": 4649,
      "tournament": 4650,
      "netflix": 4651,
      "wilmersdor": 4652,
      "(<": 4653,
      "01": 4654,
      "2x": 4655,
      "4pm": 4656,
      ";)": 4657,
      "a2": 4658,
      "ast": 4659,
      "aaa": 4660,
      "aint": 4661,
      "aka": 4662,
      "ban": 4663,
      "biss": 4664,
      "batter": 4665,
      "cam": 4666,
      "cart": 4667,
      "cable": 4668,
      "cub": 4669,
      "dd": 4670,
      "dnd": 4671,
      "dach": 4672,
      "dear": 4673,
      "daz": 4674,
      "ed": 4675,
      "equ": 4676,
      "echt": 4677,
      "elect": 4678,
      "easter": 4679,
      "fat": 4680,
      "fot": 4681,
      "fut": 4682,
      "fak": 4683,
      "fach": 4684,
      "fool": 4685,
      "fant": 4686,
      "faz": 4687,
      "fala": 4688,
      "gent": 4689,
      "gates": 4690,
      "goooo": 4691,
      "hom": 4692,
      "ib": 4693,
      "ihm": 4694,
      "iced": 4695,
      "jour": 4696,
      "kol": 4697,
      "kate": 4698,
      "kaufen": 4699,
      "lar": 4700,
      "loss": 4701,
      "lass": 4702,
      "ms": 4703,
      "mill": 4704,
      "mah": 4705,
      "mood": 4706,
      "mass": 4707,
      "meal": 4708,
      "mama": 4709,
      "nut": 4710,
      "nons": 4711,
      "ooo": 4712,
      "oven": 4713,
      "occ": 4714,
      "pa": 4715,
      "pea": 4716,
      "pink": 4717,
      "port": 4718,
      "rot": 4719,
      "rip": 4720,
      "riding": 4721,
      "si": 4722,
      "sak": 4723,
      "sage": 4724,
      "ta": 4725,
      "tank": 4726,
      "viel": 4727,
      "wy": 4728,
      "wise": 4729,
      "yooo": 4730,
      "zel": 4731,
      "на": 4732,
      "##cue": 4733,
      "##cred": 4734,
      "##ho": 4735,
      "##hi": 4736,
      "##hang": 4737,
      "##nx": 4738,
      "##lim": 4739,
      "##los": 4740,
      "##least": 4741,
      "##och": 4742,
      "##oid": 4743,
      "##ovan": 4744,
      "##bing": 4745,
      "##bst": 4746,
      "##bal": 4747,
      "##ix": 4748,
      "##igh": 4749,
      "##ige": 4750,
      "##sin": 4751,
      "##aw": 4752,
      "##wich": 4753,
      "##ds": 4754,
      "##des": 4755,
      "##tles": 4756,
      "##vote": 4757,
      "##yon": 4758,
      "##gend": 4759,
      "##gang": 4760,
      "##fle": 4761,
      "##post": 4762,
      "##men": 4763,
      "##kiro": 4764,
      "##ßer": 4765,
      "##zu": 4766,
      "##ан": 4767,
      "##24": 4768,
      "##34": 4769,
      "##ть": 4770,
      "##ja": 4771,
      "##🔥🔥": 4772,
      "##99": 4773,
      "##ined": 4774,
      "##eren": 4775,
      "##oun": 4776,
      "##ingt": 4777,
      "toba": 4778,
      "##lling": 4779,
      "##engen": 4780,
      "##oring": 4781,
      "##orke": 4782,
      "##ator": 4783,
      "##esa": 4784,
      "##esome": 4785,
      "ange": 4786,
      "anonym": 4787,
      "##omes": 4788,
      "weg": 4789,
      "weap": 4790,
      "weih": 4791,
      "##reie": 4792,
      "##ether": 4793,
      "young": 4794,
      "youtube": 4795,
      "##ayed": 4796,
      "##ising": 4797,
      "##ises": 4798,
      "whether": 4799,
      "andere": 4800,
      "##ease": 4801,
      "##stud": 4802,
      "forward": 4803,
      "chil": 4804,
      "champ": 4805,
      "china": 4806,
      "##ari": 4807,
      "meister": 4808,
      "state": 4809,
      "straße": 4810,
      "stimmt": 4811,
      "style": 4812,
      "dick": 4813,
      "diff": 4814,
      "altern": 4815,
      "atleast": 4816,
      "shirt": 4817,
      "shengen": 4818,
      "doom": 4819,
      "##cember": 4820,
      "##using": 4821,
      "brrr": 4822,
      "branden": 4823,
      "orig": 4824,
      "##unity": 4825,
      "neither": 4826,
      "neuk": 4827,
      "neigh": 4828,
      "fro": 4829,
      "fresh": 4830,
      "frank": 4831,
      "##ada": 4832,
      "##aden": 4833,
      "likely": 4834,
      "##entr": 4835,
      "comments": 4836,
      "washing": 4837,
      "trick": 4838,
      "relevant": 4839,
      "suffer": 4840,
      "sugar": 4841,
      "##nachten": 4842,
      "##essed": 4843,
      "##ender": 4844,
      "wherever": 4845,
      "reag": 4846,
      "##icult": 4847,
      "##aught": 4848,
      "##aken": 4849,
      "worse": 4850,
      "##bel": 4851,
      "playtime": 4852,
      "##fft": 4853,
      "knowled": 4854,
      "drag": 4855,
      "drank": 4856,
      "december": 4857,
      "yourself": 4858,
      "##inder": 4859,
      "##umm": 4860,
      "##olle": 4861,
      "30am": 4862,
      "30min": 4863,
      "exit": 4864,
      "diving": 4865,
      "divorce": 4866,
      "##acha": 4867,
      "##ational": 4868,
      "sekiro": 4869,
      "mayo": 4870,
      "usb": 4871,
      "uses": 4872,
      "##board": 4873,
      "cons": 4874,
      "dayum": 4875,
      "profi": 4876,
      "process": 4877,
      "chillkamp": 4878,
      "waited": 4879,
      "foodtruck": 4880,
      "brings": 4881,
      "hero": 4882,
      "arsch": 4883,
      "moves": 4884,
      "plane": 4885,
      "cross": 4886,
      "criter": 4887,
      "checkout": 4888,
      "bett": 4889,
      "agre": 4890,
      "unge": 4891,
      "unbed": 4892,
      "##ggy": 4893,
      "geb": 4894,
      "gehe": 4895,
      "schw": 4896,
      "schauen": 4897,
      "schreib": 4898,
      "smart": 4899,
      "ours": 4900,
      "admin": 4901,
      "verw": 4902,
      "sacred": 4903,
      "idiots": 4904,
      "finden": 4905,
      "gro": 4906,
      "groc": 4907,
      "prec": 4908,
      "milch": 4909,
      "##weg": 4910,
      "istria": 4911,
      "paying": 4912,
      "bottles": 4913,
      "interess": 4914,
      "minuten": 4915,
      "personally": 4916,
      "helpful": 4917,
      "infect": 4918,
      "berk": 4919,
      "bigger": 4920,
      "dani": 4921,
      "showing": 4922,
      "assume": 4923,
      "##ttes": 4924,
      "decent": 4925,
      "urham": 4926,
      "buying": 4927,
      "stays": 4928,
      "opening": 4929,
      "trains": 4930,
      "strict": 4931,
      "ohne": 4932,
      "walked": 4933,
      "hiking": 4934,
      "swim": 4935,
      "fell": 4936,
      "hoff": 4937,
      "useless": 4938,
      "##ika": 4939,
      "##werk": 4940,
      "lux": 4941,
      "lots": 4942,
      "sky": 4943,
      "recently": 4944,
      "studier": 4945,
      "weren": 4946,
      "##sche": 4947,
      "cleaner": 4948,
      "design": 4949,
      "marry": 4950,
      "cars": 4951,
      "hopefully": 4952,
      "courts": 4953,
      "charger": 4954,
      "compar": 4955,
      "compare": 4956,
      "tested": 4957,
      "##stem": 4958,
      "##stelle": 4959,
      "install": 4960,
      "balli": 4961,
      "😂😂😂😂😂": 4962,
      "uberweis": 4963,
      "texted": 4964,
      "simp": 4965,
      "simple": 4966,
      "typ": 4967,
      "voting": 4968,
      "direction": 4969,
      "easier": 4970,
      "##zzz": 4971,
      "sexism": 4972,
      "genau": 4973,
      "action": 4974,
      "snorke": 4975,
      "stream": 4976,
      "avoid": 4977,
      "##mbers": 4978,
      "halt": 4979,
      "gesund": 4980,
      "posted": 4981,
      "entire": 4982,
      "##pective": 4983,
      "tempt": 4984,
      "hinter": 4985,
      "headphones": 4986,
      "sticker": 4987,
      "shoot": 4988,
      "????": 4989,
      "papes": 4990,
      "legend": 4991,
      "confirmation": 4992,
      "tattoos": 4993,
      "##yyyyyyyy": 4994,
      "object": 4995,
      "##lafen": 4996,
      "##⠄⠄⠄": 4997,
      "selling": 4998,
      "hands": 4999,
      "meth": 5000,
      "macht": 5001,
      "##ienzeit": 5002,
      "hallowe": 5003,
      "kicking": 5004,
      "flohm": 5005,
      "lucky": 5006,
      "paris": 5007,
      "vacuum": 5008,
      "##ipping": 5009,
      "##ipped": 5010,
      "choncha": 5011,
      "warming": 5012,
      "delivery": 5013,
      "freund": 5014,
      "soul": 5015,
      "viet": 5016,
      "closer": 5017,
      "campus": 5018,
      "darf": 5019,
      "gleisd": 5020,
      "ladyf": 5021,
      "##brucke": 5022,
      "social": 5023,
      "emojis": 5024,
      "accomodations": 5025,
      "synth": 5026,
      "##aneous": 5027,
      "spending": 5028,
      "couches": 5029,
      "screenshots": 5030,
      "shoti": 5031,
      "officially": 5032,
      "##aaaaaaaaaaaaaaaa": 5033,
      "listening": 5034,
      "disrespected": 5035,
      "opport": 5036,
      "pieces": 5037,
      "valid": 5038,
      "reference": 5039,
      "promise": 5040,
      "profit": 5041,
      "munchen": 5042,
      "wollt": 5043,
      "wollte": 5044,
      "##crib": 5045,
      "##ktion": 5046,
      "chaos": 5047,
      "spoke": 5048,
      "escal": 5049,
      "ahahaha": 5050,
      "technolog": 5051,
      "karte": 5052,
      "naturlich": 5053,
      "grandma": 5054,
      "magic": 5055,
      "sandwich": 5056,
      "witcher": 5057,
      "selbst": 5058,
      "waldsch": 5059,
      "coaching": 5060,
      "skiing": 5061,
      "cigarettes": 5062,
      "duty": 5063,
      "figure": 5064,
      "jasper": 5065,
      "klein": 5066,
      "public": 5067,
      "❤❤❤": 5068,
      "regelstud": 5069,
      "drums": 5070,
      "experience": 5071,
      "convert": 5072,
      "writing": 5073,
      "urgently": 5074,
      "translation": 5075,
      "aayyee": 5076,
      "motherfucker": 5077,
      "judge": 5078,
      "lmao": 5079,
      "permit": 5080,
      "zahlen": 5081,
      "intrested": 5082,
      "outfit": 5083,
      "teufels": 5084,
      "covered": 5085,
      "barbecue": 5086,
      "flaschenpost": 5087,
      "auslanderbehorde": 5088,
      "bulgaria": 5089,
      "cinema": 5090,
      "garden": 5091,
      "jerry": 5092,
      "ladies": 5093,
      "mikhail": 5094,
      "angry": 5095,
      "sharp": 5096,
      "comfortable": 5097,
      "spikeball": 5098,
      "condition": 5099,
      "afraid": 5100,
      "advance": 5101,
      "slightly": 5102,
      "poppy": 5103,
      "gunstig": 5104,
      "engineer": 5105,
      "bisschen": 5106,
      "dachte": 5107,
      "future": 5108,
      "fazana": 5109,
      "falafel": 5110,
      "large": 5111,
      "msg": 5112,
      "nonsense": 5113,
      "paar": 5114,
      "peace": 5115,
      "tankstelle": 5116,
      "tobacco": 5117,
      "weihnachten": 5118,
      "##reieck": 5119,
      "neighb": 5120,
      "knowledge": 5121,
      "criteria": 5122,
      "unbedingt": 5123,
      "halloween": 5124,
      "gleisdreieck": 5125,
      "regelstudienzeit": 5126,
      "))": 5127,
      "2v": 5128,
      "2pm": 5129,
      "4th": 5130,
      "65": 5131,
      "600": 5132,
      "92": 5133,
      "?)": 5134,
      "ach": 5135,
      "aff": 5136,
      "aper": 5137,
      "bon": 5138,
      "boo": 5139,
      "bust": 5140,
      "bess": 5141,
      "bak": 5142,
      "bach": 5143,
      "bier": 5144,
      "base": 5145,
      "buchen": 5146,
      "block": 5147,
      "ce": 5148,
      "cy": 5149,
      "cen": 5150,
      "cir": 5151,
      "cache": 5152,
      "db": 5153,
      "dk": 5154,
      "dau": 5155,
      "dish": 5156,
      "eb": 5157,
      "eing": 5158,
      "epl": 5159,
      "fa": 5160,
      "fart": 5161,
      "fau": 5162,
      "fount": 5163,
      "fences": 5164,
      "gin": 5165,
      "gest": 5166,
      "gute": 5167,
      "hen": 5168,
      "hun": 5169,
      "hop": 5170,
      "hos": 5171,
      "hence": 5172,
      "hits": 5173,
      "heal": 5174,
      "hiding": 5175,
      "ily": 5176,
      "je": 5177,
      "jann": 5178,
      "jahr": 5179,
      "jbl": 5180,
      "kop": 5181,
      "kont": 5182,
      "kund": 5183,
      "kuchen": 5184,
      "low": 5185,
      "lust": 5186,
      "lange": 5187,
      "ml": 5188,
      "mat": 5189,
      "mic": 5190,
      "map": 5191,
      "mash": 5192,
      "nic": 5193,
      "nooo": 5194,
      "noooo": 5195,
      "ngl": 5196,
      "naught": 5197,
      "ooooo": 5198,
      "pc": 5199,
      "pal": 5200,
      "pand": 5201,
      "pip": 5202,
      "punch": 5203,
      "pump": 5204,
      "pork": 5205,
      "rid": 5206,
      "rie": 5207,
      "rave": 5208,
      "sin": 5209,
      "sam": 5210,
      "sir": 5211,
      "sil": 5212,
      "sig": 5213,
      "schen": 5214,
      "sry": 5215,
      "sss": 5216,
      "soooo": 5217,
      "sym": 5218,
      "tit": 5219,
      "tall": 5220,
      "tus": 5221,
      "tent": 5222,
      "tape": 5223,
      "ul": 5224,
      "urs": 5225,
      "ubahn": 5226,
      "ubers": 5227,
      "vir": 5228,
      "volley": 5229,
      "verm": 5230,
      "vals": 5231,
      "wat": 5232,
      "wot": 5233,
      "wart": 5234,
      "wast": 5235,
      "wichtig": 5236,
      "wisd": 5237,
      "zw": 5238,
      "zer": 5239,
      "“.": 5240,
      "⠄⠄": 5241,
      "🔥🔥🔥": 5242,
      "😅😅": 5243,
      "😐😐": 5244,
      "🚨🚨": 5245,
      "##can": 5246,
      "##cent": 5247,
      "##cake": 5248,
      "##cup": 5249,
      "##cakes": 5250,
      "##cracy": 5251,
      "##hent": 5252,
      "##hend": 5253,
      "##hand": 5254,
      "##halt": 5255,
      "##lies": 5256,
      "##ru": 5257,
      "##ruf": 5258,
      "##rof": 5259,
      "##ox": 5260,
      "##ober": 5261,
      "##bes": 5262,
      "##bar": 5263,
      "##bung": 5264,
      "##iy": 5265,
      "##iard": 5266,
      "##iother": 5267,
      "##iod": 5268,
      "##ique": 5269,
      "##sc": 5270,
      "##so": 5271,
      "##uce": 5272,
      "##agh": 5273,
      "##aft": 5274,
      "##wur": 5275,
      "##wers": 5276,
      "##dl": 5277,
      "##dog": 5278,
      "##duct": 5279,
      "##ton": 5280,
      "##tled": 5281,
      "##vi": 5282,
      "##vor": 5283,
      "##vice": 5284,
      "##ye": 5285,
      "##gy": 5286,
      "##gre": 5287,
      "##gers": 5288,
      "##gue": 5289,
      "##glich": 5290,
      "##кр": 5291,
      "##кии": 5292,
      "##ре": 5293,
      "##food": 5294,
      "##fir": 5295,
      "##pre": 5296,
      "##pap": 5297,
      "##mi": 5298,
      "##mal": 5299,
      "##ked": 5300,
      "##kalt": 5301,
      "##но": 5302,
      "##zt": 5303,
      "##70": 5304,
      "##78": 5305,
      "##87": 5306,
      "##15": 5307,
      "##40": 5308,
      "##😭😭": 5309,
      "##ид": 5310,
      "##ji": 5311,
      "##>>": 5312,
      "thx": 5313,
      "thom": 5314,
      "thirst": 5315,
      "thnx": 5316,
      "##annt": 5317,
      "##anian": 5318,
      "theo": 5319,
      "ant": 5320,
      "anx": 5321,
      "angeb": 5322,
      "insh": 5323,
      "inner": 5324,
      "##itter": 5325,
      "##itary": 5326,
      "##itical": 5327,
      "##chn": 5328,
      "##chte": 5329,
      "##reau": 5330,
      "##rehend": 5331,
      "##eth": 5332,
      "youre": 5333,
      "##ayd": 5334,
      "##ayay": 5335,
      "##isy": 5336,
      "##isst": 5337,
      "wheel": 5338,
      "##eapp": 5339,
      "##stuck": 5340,
      "##stite": 5341,
      "##storm": 5342,
      "##standen": 5343,
      "##owitz": 5344,
      "##eree": 5345,
      "##erein": 5346,
      "chop": 5347,
      "chee": 5348,
      "chances": 5349,
      "challen": 5350,
      "chacha": 5351,
      "##ammm": 5352,
      "onwards": 5353,
      "##arm": 5354,
      "##aren": 5355,
      "##keit": 5356,
      "##cker": 5357,
      "##cked": 5358,
      "canyon": 5359,
      "bell": 5360,
      "members": 5361,
      "stat": 5362,
      "stad": 5363,
      "stable": 5364,
      "staub": 5365,
      "dimon": 5366,
      "digga": 5367,
      "align": 5368,
      "##aim": 5369,
      "##asen": 5370,
      "shape": 5371,
      "##aly": 5372,
      "##alis": 5373,
      "##aline": 5374,
      "##alog": 5375,
      "##allee": 5376,
      "brit": 5377,
      "lil": 5378,
      "liking": 5379,
      "lidl": 5380,
      "butter": 5381,
      "notic": 5382,
      "gover": 5383,
      "soil": 5384,
      "orne": 5385,
      "neben": 5386,
      "anytime": 5387,
      "frag": 5388,
      "fragen": 5389,
      "willing": 5390,
      "##imod": 5391,
      "heißt": 5392,
      "nose": 5393,
      "noise": 5394,
      "##iden": 5395,
      "##ented": 5396,
      "##enthalt": 5397,
      "upstairs": 5398,
      "upvote": 5399,
      "okie": 5400,
      "wasnt": 5401,
      "##ability": 5402,
      "trust": 5403,
      "trend": 5404,
      "trine": 5405,
      "trail": 5406,
      "minim": 5407,
      "##days": 5408,
      "##olt": 5409,
      "rein": 5410,
      "repe": 5411,
      "recht": 5412,
      "prior": 5413,
      "suß": 5414,
      "suit": 5415,
      "suck": 5416,
      "amy": 5417,
      "amber": 5418,
      "peps": 5419,
      "lek": 5420,
      "lezzzz": 5421,
      "spit": 5422,
      "spir": 5423,
      "spont": 5424,
      "spicy": 5425,
      "##ending": 5426,
      "imm": 5427,
      "##ics": 5428,
      "##ilt": 5429,
      "##iler": 5430,
      "knock": 5431,
      "worry": 5432,
      "worried": 5433,
      "##ained": 5434,
      "##uhhh": 5435,
      "##fff": 5436,
      "##ffles": 5437,
      "drone": 5438,
      "dress": 5439,
      "driv": 5440,
      "drones": 5441,
      "driver": 5442,
      "##ickt": 5443,
      "##icken": 5444,
      "deinen": 5445,
      "body": 5446,
      "damag": 5447,
      "##uments": 5448,
      "bruhhh": 5449,
      "##olln": 5450,
      "##ulting": 5451,
      "##ulations": 5452,
      "##igt": 5453,
      "##igung": 5454,
      "##ntag": 5455,
      "##oster": 5456,
      "##log": 5457,
      "sees": 5458,
      "teeth": 5459,
      "worked": 5460,
      "usual": 5461,
      "hasnt": 5462,
      "shitting": 5463,
      "##ively": 5464,
      "product": 5465,
      "everytime": 5466,
      "##plant": 5467,
      "##twoch": 5468,
      "chilled": 5469,
      "##istration": 5470,
      "heretic": 5471,
      "arsen": 5472,
      "claim": 5473,
      "moon": 5474,
      "mode": 5475,
      "moglich": 5476,
      "plant": 5477,
      "##mein": 5478,
      "cring": 5479,
      "cris": 5480,
      "crack": 5481,
      "aggress": 5482,
      "bitching": 5483,
      "unf": 5484,
      "gel": 5485,
      "gemein": 5486,
      "coke": 5487,
      "homework": 5488,
      "overload": 5489,
      "schre": 5490,
      "schau": 5491,
      "schade": 5492,
      "scharf": 5493,
      "calls": 5494,
      "##tell": 5495,
      "cousin": 5496,
      "smile": 5497,
      "##ives": 5498,
      "afterno": 5499,
      "bhalis": 5500,
      "##⣿⣿⣿": 5501,
      "ourselves": 5502,
      "##heim": 5503,
      "bureau": 5504,
      "verl": 5505,
      "verp": 5506,
      "puts": 5507,
      "putler": 5508,
      "##ipate": 5509,
      "written": 5510,
      "pleas": 5511,
      "grun": 5512,
      "predict": 5513,
      "##anned": 5514,
      "##ups": 5515,
      "##uprof": 5516,
      "blu": 5517,
      "blood": 5518,
      "blame": 5519,
      "settled": 5520,
      "military": 5521,
      "##eln": 5522,
      "##elor": 5523,
      "##raw": 5524,
      "##race": 5525,
      "perspective": 5526,
      "interesse": 5527,
      "pose": 5528,
      "further": 5529,
      "helps": 5530,
      "infinite": 5531,
      "biking": 5532,
      "passed": 5533,
      "##ission": 5534,
      "haha": 5535,
      "hahahh": 5536,
      "adds": 5537,
      "adding": 5538,
      "addict": 5539,
      "finals": 5540,
      "##ullah": 5541,
      "alfiyas": 5542,
      "dudes": 5543,
      "shows": 5544,
      "reser": 5545,
      "respect": 5546,
      "appro": 5547,
      "applic": 5548,
      "mittwoch": 5549,
      "monkey": 5550,
      "period": 5551,
      "opened": 5552,
      "accident": 5553,
      "earn": 5554,
      "ears": 5555,
      "earli": 5556,
      "watering": 5557,
      "musst": 5558,
      "mushroom": 5559,
      "muslim": 5560,
      "17th": 5561,
      "xddd": 5562,
      "indo": 5563,
      "indust": 5564,
      "aufenthalt": 5565,
      "stress": 5566,
      "strate": 5567,
      "strand": 5568,
      "contun": 5569,
      "erst": 5570,
      "bestell": 5571,
      "sweden": 5572,
      "feh": 5573,
      "feiert": 5574,
      "greet": 5575,
      "splitting": 5576,
      "hole": 5577,
      "suggestion": 5578,
      "hearing": 5579,
      "##ources": 5580,
      "located": 5581,
      "file": 5582,
      "denke": 5583,
      "slices": 5584,
      "corn": 5585,
      "11am": 5586,
      "keinen": 5587,
      "keeps": 5588,
      "hatten": 5589,
      "smaller": 5590,
      "##iii": 5591,
      "studium": 5592,
      "burgir": 5593,
      "##schl": 5594,
      "cleaned": 5595,
      "cheapest": 5596,
      "desert": 5597,
      "describ": 5598,
      "march": 5599,
      "marri": 5600,
      "married": 5601,
      "##quets": 5602,
      "hahahahah": 5603,
      "hahahahaha": 5604,
      "menue": 5605,
      "packed": 5606,
      "packages": 5607,
      "reduc": 5608,
      "computer": 5609,
      "comprehend": 5610,
      "proposed": 5611,
      "georgisch": 5612,
      "testing": 5613,
      "##ship": 5614,
      "##steigen": 5615,
      "questioning": 5616,
      "kommst": 5617,
      "hmmmm": 5618,
      "uberle": 5619,
      "invit": 5620,
      "region": 5621,
      "regular": 5622,
      "links": 5623,
      "possibly": 5624,
      "simpl": 5625,
      "typing": 5626,
      "typed": 5627,
      "defin": 5628,
      "##udda": 5629,
      "turnier": 5630,
      "color": 5631,
      "colours": 5632,
      "sexy": 5633,
      "weekends": 5634,
      "##nnnn": 5635,
      "smok": 5636,
      "snow": 5637,
      "seafood": 5638,
      "streets": 5639,
      "scream": 5640,
      "boris": 5641,
      "faster": 5642,
      "kidding": 5643,
      "wins": 5644,
      "##oved": 5645,
      "aware": 5646,
      "awful": 5647,
      "gesagt": 5648,
      "##riend": 5649,
      "##eeeee": 5650,
      "exams": 5651,
      "answering": 5652,
      "umsteigen": 5653,
      "##rrrr": 5654,
      "boxing": 5655,
      "boxes": 5656,
      "discussing": 5657,
      "author": 5658,
      "authent": 5659,
      "##trance": 5660,
      "delay": 5661,
      "deleted": 5662,
      "airbnbs": 5663,
      "glasses": 5664,
      "tabs": 5665,
      "curry": 5666,
      "kriegen": 5667,
      "killed": 5668,
      "##roy": 5669,
      "release": 5670,
      "meter": 5671,
      "recommended": 5672,
      "recommendations": 5673,
      "balances": 5674,
      "remove": 5675,
      "remaining": 5676,
      "spray": 5677,
      "acid": 5678,
      "hanging": 5679,
      "raw": 5680,
      "organized": 5681,
      "moldovan": 5682,
      "international": 5683,
      "bene": 5684,
      "catan": 5685,
      "mussen": 5686,
      "potato": 5687,
      "parfa": 5688,
      "sonntag": 5689,
      "chonker": 5690,
      "changing": 5691,
      "lights": 5692,
      "lighter": 5693,
      "ukrainian": 5694,
      "27th": 5695,
      "besuchen": 5696,
      "irre": 5697,
      "irgend": 5698,
      "pinned": 5699,
      "pineapp": 5700,
      "viol": 5701,
      "belong": 5702,
      "entert": 5703,
      "##ification": 5704,
      "holding": 5705,
      "##⣿⣿⣿⣿⣿⣿⣿⣿⣿⣿⣿⣿": 5706,
      "explains": 5707,
      "explained": 5708,
      "copy": 5709,
      "system": 5710,
      "wearing": 5711,
      "refund": 5712,
      "referee": 5713,
      "spielen": 5714,
      "imposter": 5715,
      "following": 5716,
      "##cessary": 5717,
      "insult": 5718,
      "carrying": 5719,
      "distur": 5720,
      "kostet": 5721,
      "linsen": 5722,
      "multimod": 5723,
      "surv": 5724,
      "brauchen": 5725,
      "accordingly": 5726,
      "ayyy": 5727,
      "ayyee": 5728,
      "mix": 5729,
      "valer": 5730,
      "##ointed": 5731,
      "reply": 5732,
      "repair": 5733,
      "promised": 5734,
      "joaq": 5735,
      "reaction": 5736,
      "physically": 5737,
      "physical": 5738,
      "physiother": 5739,
      "wohnheim": 5740,
      "52100": 5741,
      "film": 5742,
      "munich": 5743,
      "pancakes": 5744,
      "versuche": 5745,
      "amazing": 5746,
      "focused": 5747,
      "accepting": 5748,
      "nicknames": 5749,
      "ayo": 5750,
      "data": 5751,
      "observation": 5752,
      "rolls": 5753,
      "searching": 5754,
      "solution": 5755,
      "##gebung": 5756,
      "provide": 5757,
      "community": 5758,
      "recorded": 5759,
      "billiard": 5760,
      "pushed": 5761,
      "wuttt": 5762,
      "limited": 5763,
      "hehehehe": 5764,
      "truly": 5765,
      "truffles": 5766,
      "practical": 5767,
      "excited": 5768,
      "savage": 5769,
      "increased": 5770,
      "smells": 5771,
      "destination": 5772,
      "destroy": 5773,
      "eyes": 5774,
      "hyped": 5775,
      "hilfe": 5776,
      "latest": 5777,
      "pissed": 5778,
      "romance": 5779,
      "issues": 5780,
      "present": 5781,
      "##endenwerk": 5782,
      "projector": 5783,
      "herrmann": 5784,
      "empor": 5785,
      "involved": 5786,
      "transaction": 5787,
      "transactions": 5788,
      "friedrichstraße": 5789,
      "annoyed": 5790,
      "aaay": 5791,
      "bleib": 5792,
      "bahli": 5793,
      "calc": 5794,
      "estate": 5795,
      "krauter": 5796,
      "named": 5797,
      "petition": 5798,
      "villa": 5799,
      "##punkt": 5800,
      "fruher": 5801,
      "receive": 5802,
      "printer": 5803,
      "clouds": 5804,
      "individual": 5805,
      "strugg": 5806,
      "deserve": 5807,
      "suddenly": 5808,
      "relaxi": 5809,
      "dahin": 5810,
      "facilities": 5811,
      "favour": 5812,
      "given": 5813,
      "laying": 5814,
      "loooool": 5815,
      "october": 5816,
      "rathaus": 5817,
      "##rowave": 5818,
      "theodor": 5819,
      "intention": 5820,
      "hamza": 5821,
      "meinte": 5822,
      "stalker": 5823,
      "negative": 5824,
      "fruhstuck": 5825,
      "absol": 5826,
      "crashed": 5827,
      "participate": 5828,
      "accommodation": 5829,
      "demonstr": 5830,
      "extremely": 5831,
      "lawyer": 5832,
      "explosion": 5833,
      "ironic": 5834,
      "psytrance": 5835,
      "motivation": 5836,
      "communicate": 5837,
      "volunteer": 5838,
      "cucumbers": 5839,
      "disappointed": 5840,
      "wilmersdorf": 5841,
      "(<-": 5842,
      "astagh": 5843,
      "cuba": 5844,
      "dazu": 5845,
      "educ": 5846,
      "ibuprof": 5847,
      "journey": 5848,
      "wyd": 5849,
      "zelens": 5850,
      "##343": 5851,
      "anonymous": 5852,
      "weapons": 5853,
      "chili": 5854,
      "difficult": 5855,
      "original": 5856,
      "neukolln": 5857,
      "profile": 5858,
      "agreed": 5859,
      "ungefahr": 5860,
      "schreiben": 5861,
      "verwaltung": 5862,
      "interessiert": 5863,
      "daniil": 5864,
      "strictly": 5865,
      "hoffentlich": 5866,
      "studierendenwerk": 5867,
      "snorkel": 5868,
      "legendary": 5869,
      "flohmarkt": 5870,
      "ladyfinger": 5871,
      "opportunity": 5872,
      "sandwiches": 5873,
      "teufelssee": 5874,
      "neighbor": 5875,
      "2v2": 5876,
      "aperol": 5877,
      "besser": 5878,
      "bachelor": 5879,
      "ebay": 5880,
      "farting": 5881,
      "henry": 5882,
      "jannowitz": 5883,
      "kundgebung": 5884,
      "microwave": 5885,
      "naughty": 5886,
      "palast": 5887,
      "valsaline": 5888,
      "wisdom": 5889,
      "##firullah": 5890,
      "thomas": 5891,
      "inshallah": 5892,
      "wheels": 5893,
      "noticed": 5894,
      "govern": 5895,
      "driving": 5896,
      "damaged": 5897,
      "arsenal": 5898,
      "afternoon": 5899,
      "bureaucracy": 5900,
      "application": 5901,
      "earliest": 5902,
      "aufenthaltstite": 5903,
      "marriage": 5904,
      "reduced": 5905,
      "pineapple": 5906,
      "astaghfirullah": 5907,
      "ibuprofen": 5908,
      "jannowitzbrucke": 5909,
      "\",": 5910,
      "\"?": 5911,
      "2g": 5912,
      "3d": 5913,
      "37": 5914,
      "3pm": 5915,
      "4k": 5916,
      "56": 5917,
      "66": 5918,
      "6pm": 5919,
      "85": 5920,
      "83": 5921,
      "9eur": 5922,
      "?\"": 5923,
      "?🤔": 5924,
      "?😁": 5925,
      "^^": 5926,
      "ao": 5927,
      "ap": 5928,
      "age": 5929,
      "aven": 5930,
      "bc": 5931,
      "b1": 5932,
      "bom": 5933,
      "bay": 5934,
      "buck": 5935,
      "bum": 5936,
      "buch": 5937,
      "bother": 5938,
      "batch": 5939,
      "bans": 5940,
      "banned": 5941,
      "cv": 5942,
      "cent": 5943,
      "cert": 5944,
      "dw": 5945,
      "dre": 5946,
      "dai": 5947,
      "dus": 5948,
      "dad": 5949,
      "dee": 5950,
      "dess": 5951,
      "duh": 5952,
      "dort": 5953,
      "daa": 5954,
      "dms": 5955,
      "daaa": 5956,
      "ec": 5957,
      "eink": 5958,
      "eig": 5959,
      "eier": 5960,
      "ff": 5961,
      "f1": 5962,
      "fis": 5963,
      "fal": 5964,
      "fare": 5965,
      "fel": 5966,
      "father": 5967,
      "finger": 5968,
      "fml": 5969,
      "feta": 5970,
      "fuel": 5971,
      "gere": 5972,
      "gab": 5973,
      "glo": 5974,
      "gast": 5975,
      "gear": 5976,
      "gif": 5977,
      "gese": 5978,
      "ginger": 5979,
      "ganze": 5980,
      "gyr": 5981,
      "hh": 5982,
      "hw": 5983,
      "hilar": 5984,
      "hunter": 5985,
      "ih": 5986,
      "jn": 5987,
      "jj": 5988,
      "jes": 5989,
      "jal": 5990,
      "jos": 5991,
      "jackets": 5992,
      "jury": 5993,
      "kh": 5994,
      "kot": 5995,
      "kam": 5996,
      "kim": 5997,
      "kore": 5998,
      "kist": 5999,
      "kla": 6000,
      "kurs": 6001,
      "lan": 6002,
      "led": 6003,
      "lam": 6004,
      "lal": 6005,
      "lamp": 6006,
      "lasst": 6007,
      "mos": 6008,
      "muh": 6009,
      "mont": 6010,
      "mates": 6011,
      "matt": 6012,
      "muse": 6013,
      "merg": 6014,
      "mouse": 6015,
      "ni": 6016,
      "nit": 6017,
      "nation": 6018,
      "nerv": 6019,
      "nimmt": 6020,
      "oi": 6021,
      "ot": 6022,
      "oil": 6023,
      "ooof": 6024,
      "pen": 6025,
      "pad": 6026,
      "pee": 6027,
      "pil": 6028,
      "pig": 6029,
      "patch": 6030,
      "porn": 6031,
      "pcr": 6032,
      "passt": 6033,
      "qith": 6034,
      "qif": 6035,
      "rt": 6036,
      "rm": 6037,
      "rim": 6038,
      "ss": 6039,
      "soo": 6040,
      "sust": 6041,
      "sna": 6042,
      "sach": 6043,
      "sort": 6044,
      "sung": 6045,
      "sooo": 6046,
      "salt": 6047,
      "ssss": 6048,
      "sorgen": 6049,
      "sisy": 6050,
      "tes": 6051,
      "tun": 6052,
      "tight": 6053,
      "tge": 6054,
      "tage": 6055,
      "tier": 6056,
      "tagen": 6057,
      "uv": 6058,
      "ug": 6059,
      "uch": 6060,
      "umm": 6061,
      "ubere": 6062,
      "uhhhh": 6063,
      "vou": 6064,
      "via": 6065,
      "vel": 6066,
      "varian": 6067,
      "vari": 6068,
      "wen": 6069,
      "wiss": 6070,
      "www": 6071,
      "wagon": 6072,
      "wifi": 6073,
      "yass": 6074,
      "yana": 6075,
      "yada": 6076,
      "zimm": 6077,
      "бы": 6078,
      "ес": 6079,
      "мо": 6080,
      "со": 6081,
      "укр": 6082,
      "👁👄": 6083,
      "👍🏼": 6084,
      "👎🏻": 6085,
      "🤞🤞": 6086,
      "🤣.": 6087,
      "🥲🥲": 6088,
      "##cut": 6089,
      "##cur": 6090,
      "##cook": 6091,
      "##ex": 6092,
      "##elle": 6093,
      "##has": 6094,
      "##hood": 6095,
      "##hmer": 6096,
      "##hoh": 6097,
      "##not": 6098,
      "##nal": 6099,
      "##nah": 6100,
      "##night": 6101,
      "##names": 6102,
      "##lus": 6103,
      "##light": 6104,
      "##lau": 6105,
      "##lers": 6106,
      "##lish": 6107,
      "##laub": 6108,
      "##lasses": 6109,
      "##rt": 6110,
      "##ren": 6111,
      "##ram": 6112,
      "##rie": 6113,
      "##ract": 6114,
      "##ragen": 6115,
      "##rakt": 6116,
      "##oke": 6117,
      "##oir": 6118,
      "##oices": 6119,
      "##ooth": 6120,
      "##bf": 6121,
      "##bit": 6122,
      "##bol": 6123,
      "##book": 6124,
      "##bias": 6125,
      "##ients": 6126,
      "##iße": 6127,
      "##ihen": 6128,
      "##sp": 6129,
      "##ses": 6130,
      "##sed": 6131,
      "##sst": 6132,
      "##she": 6133,
      "##sha": 6134,
      "##upt": 6135,
      "##uary": 6136,
      "##aat": 6137,
      "##ait": 6138,
      "##ale": 6139,
      "##aving": 6140,
      "##aitor": 6141,
      "##wes": 6142,
      "##di": 6143,
      "##dam": 6144,
      "##dish": 6145,
      "##draw": 6146,
      "##tte": 6147,
      "##vy": 6148,
      "##val": 6149,
      "##yes": 6150,
      "##yam": 6151,
      "##gn": 6152,
      "##go": 6153,
      "##gor": 6154,
      "##gam": 6155,
      "##gung": 6156,
      "##ground": 6157,
      "##gurt": 6158,
      "##ос": 6159,
      "##ол": 6160,
      "##fol": 6161,
      "##flo": 6162,
      "##face": 6163,
      "##fox": 6164,
      "##))": 6165,
      "##puch": 6166,
      "##pital": 6167,
      "##my": 6168,
      "##mar": 6169,
      "##mind": 6170,
      "##mical": 6171,
      "##kam": 6172,
      "##kau": 6173,
      "##kasse": 6174,
      "##xic": 6175,
      "##ет": 6176,
      "##ßß": 6177,
      "##zo": 6178,
      "##ziel": 6179,
      "##ать": 6180,
      "##05": 6181,
      "##30": 6182,
      "##68": 6183,
      "##то": 6184,
      "##ин": 6185,
      "##jf": 6186,
      "##jak": 6187,
      "##96": 6188,
      "##94": 6189,
      "##⣛⣛": 6190,
      "##ши": 6191,
      "##_puch": 6192,
      "thin": 6193,
      "##inc": 6194,
      "##iny": 6195,
      "##inals": 6196,
      "##insel": 6197,
      "##eries": 6198,
      "##oudy": 6199,
      "toward": 6200,
      "tofu": 6201,
      "##llen": 6202,
      "##eng": 6203,
      "##enick": 6204,
      "##enjak": 6205,
      "##orge": 6206,
      "##oration": 6207,
      "##orrect": 6208,
      "##atish": 6209,
      "##atze": 6210,
      "##atory": 6211,
      "##esiser": 6212,
      "anson": 6213,
      "anti": 6214,
      "init": 6215,
      "intu": 6216,
      "##ita": 6217,
      "##ites": 6218,
      "##itar": 6219,
      "##ched": 6220,
      "##chers": 6221,
      "wein": 6222,
      "wegen": 6223,
      "##reas": 6224,
      "##real": 6225,
      "##reise": 6226,
      "##rekt": 6227,
      "##etit": 6228,
      "##etooth": 6229,
      "##ays": 6230,
      "##ison": 6231,
      "##isation": 6232,
      "hace": 6233,
      "hamm": 6234,
      "whom": 6235,
      "ander": 6236,
      "##ealing": 6237,
      "##stand": 6238,
      "##stream": 6239,
      "##uten": 6240,
      "##oop": 6241,
      "##erecht": 6242,
      "force": 6243,
      "chip": 6244,
      "chann": 6245,
      "##amt": 6246,
      "##vey": 6247,
      "##arc": 6248,
      "##ille": 6249,
      "##ckens": 6250,
      "cannot": 6251,
      "bee": 6252,
      "meld": 6253,
      "meint": 6254,
      "sth": 6255,
      "stage": 6256,
      "statt": 6257,
      "stern": 6258,
      "dig": 6259,
      "dien": 6260,
      "direkt": 6261,
      "alien": 6262,
      "alarm": 6263,
      "algor": 6264,
      "##asion": 6265,
      "##ashing": 6266,
      "##asphe": 6267,
      "often": 6268,
      "attem": 6269,
      "##ldo": 6270,
      "plent": 6271,
      "plastic": 6272,
      "shy": 6273,
      "shame": 6274,
      "shamp": 6275,
      "ship": 6276,
      "##ura": 6277,
      "##urate": 6278,
      "##urance": 6279,
      "bright": 6280,
      "bros": 6281,
      "brown": 6282,
      "brief": 6283,
      "brudda": 6284,
      "lies": 6285,
      "lile": 6286,
      "lift": 6287,
      "likes": 6288,
      "lived": 6289,
      "liked": 6290,
      "ligam": 6291,
      "note": 6292,
      "notice": 6293,
      "gold": 6294,
      "golden": 6295,
      "sogar": 6296,
      "socken": 6297,
      "neu": 6298,
      "neee": 6299,
      "nephe": 6300,
      "frau": 6301,
      "franz": 6302,
      "therefore": 6303,
      "withdraw": 6304,
      "##verse": 6305,
      "##ading": 6306,
      "noises": 6307,
      "guarant": 6308,
      "guitar": 6309,
      "##ida": 6310,
      "##iday": 6311,
      "##ided": 6312,
      "##idal": 6313,
      "##herman": 6314,
      "asap": 6315,
      "##ichen": 6316,
      "##ighty": 6317,
      "##irk": 6318,
      "##ires": 6319,
      "ups": 6320,
      "upon": 6321,
      "doners": 6322,
      "okr": 6323,
      "okto": 6324,
      "##abt": 6325,
      "trash": 6326,
      "trial": 6327,
      "tripp": 6328,
      "tragt": 6329,
      "triest": 6330,
      "traitor": 6331,
      "mini": 6332,
      "minister": 6333,
      "##estell": 6334,
      "##ola": 6335,
      "##olf": 6336,
      "##olen": 6337,
      "rev": 6338,
      "refu": 6339,
      "proud": 6340,
      "proof": 6341,
      "abit": 6342,
      "abend": 6343,
      "abgel": 6344,
      "sum": 6345,
      "suic": 6346,
      "subl": 6347,
      "##ieh": 6348,
      "##napp": 6349,
      "pepp": 6350,
      "joan": 6351,
      "jojo": 6352,
      "leuten": 6353,
      "##acko": 6354,
      "##acking": 6355,
      "span": 6356,
      "spook": 6357,
      "spare": 6358,
      "spank": 6359,
      "spider": 6360,
      "spamming": 6361,
      "##ppl": 6362,
      "##ende": 6363,
      "image": 6364,
      "##ici": 6365,
      "##ica": 6366,
      "##icit": 6367,
      "##icated": 6368,
      "##icious": 6369,
      "##arten": 6370,
      "##aupt": 6371,
      "knee": 6372,
      "knife": 6373,
      "##bei": 6374,
      "plays": 6375,
      "playin": 6376,
      "playlist": 6377,
      "knowing": 6378,
      "dro": 6379,
      "drip": 6380,
      "drama": 6381,
      "department": 6382,
      "devel": 6383,
      "death": 6384,
      "degre": 6385,
      "yeap": 6386,
      "boorgir": 6387,
      "bodies": 6388,
      "damages": 6389,
      "fucker": 6390,
      "bruhhhh": 6391,
      "##olleg": 6392,
      "##uling": 6393,
      "##ulance": 6394,
      "moreover": 6395,
      "divide": 6396,
      "##acht": 6397,
      "##igny": 6398,
      "shelf": 6399,
      "##loy": 6400,
      "self": 6401,
      "teil": 6402,
      "105": 6403,
      "10th": 6404,
      "##agram": 6405,
      "##ossible": 6406,
      "conte": 6407,
      "congr": 6408,
      "condit": 6409,
      "constr": 6410,
      "joint": 6411,
      "chemical": 6412,
      "prove": 6413,
      "program": 6414,
      "everyday": 6415,
      "bye": 6416,
      "divyans": 6417,
      "chilliw": 6418,
      "##thy": 6419,
      "##istic": 6420,
      "##istically": 6421,
      "cliff": 6422,
      "cloudy": 6423,
      "mocht": 6424,
      "moved": 6425,
      "moji": 6426,
      "mochte": 6427,
      "crop": 6428,
      "cried": 6429,
      "crying": 6430,
      "cruel": 6431,
      "craving": 6432,
      "eaten": 6433,
      "sommer": 6434,
      "bets": 6435,
      "unne": 6436,
      "unex": 6437,
      "##fte": 6438,
      "gem": 6439,
      "geld": 6440,
      "geles": 6441,
      "geben": 6442,
      "gefr": 6443,
      "geword": 6444,
      "geziel": 6445,
      "george": 6446,
      "##ichtlich": 6447,
      "coal": 6448,
      "cockt": 6449,
      "##aaah": 6450,
      "overall": 6451,
      "overcook": 6452,
      "schlafen": 6453,
      "##aped": 6454,
      "cours": 6455,
      "coupon": 6456,
      "##ermine": 6457,
      "##ived": 6458,
      "##ivil": 6459,
      "became": 6460,
      "becomes": 6461,
      "afterpart": 6462,
      "eichkampers": 6463,
      "adam": 6464,
      "adop": 6465,
      "advent": 6466,
      "adapter": 6467,
      "##heit": 6468,
      "##rschein": 6469,
      "proble": 6470,
      "login": 6471,
      "##ierung": 6472,
      "coolio": 6473,
      "sends": 6474,
      "veran": 6475,
      "verhand": 6476,
      "verstanden": 6477,
      "sauna": 6478,
      "000": 6479,
      "bars": 6480,
      "quali": 6481,
      "quark": 6482,
      "quarant": 6483,
      "quality": 6484,
      "finde": 6485,
      "finds": 6486,
      "findet": 6487,
      "einmal": 6488,
      "makali": 6489,
      "preis": 6490,
      "prepping": 6491,
      "##anne": 6492,
      "sleeps": 6493,
      "sleepy": 6494,
      "scen": 6495,
      "scarf": 6496,
      "scene": 6497,
      "parts": 6498,
      "partner": 6499,
      "##ailed": 6500,
      "offsh": 6501,
      "blow": 6502,
      "blasphe": 6503,
      "beast": 6504,
      "sets": 6505,
      "setzen": 6506,
      "leftover": 6507,
      "##wel": 6508,
      "##perate": 6509,
      "elon": 6510,
      "##yyee": 6511,
      "emot": 6512,
      "probability": 6513,
      "rooms": 6514,
      "flu": 6515,
      "flamm": 6516,
      "fliegen": 6517,
      "sunny": 6518,
      "bots": 6519,
      "##antly": 6520,
      "##antic": 6521,
      "interview": 6522,
      "pov": 6523,
      "poker": 6524,
      "disab": 6525,
      "disney": 6526,
      "warst": 6527,
      "warning": 6528,
      "##sssss": 6529,
      "ilayd": 6530,
      "twitter": 6531,
      "hello": 6532,
      "dancing": 6533,
      "passing": 6534,
      "harb": 6535,
      "finan": 6536,
      "finishing": 6537,
      "dub": 6538,
      "turd": 6539,
      "turke": 6540,
      "germans": 6541,
      "resol": 6542,
      "result": 6543,
      "reserv": 6544,
      "resources": 6545,
      "appr": 6546,
      "appear": 6547,
      "function": 6548,
      "assum": 6549,
      "liters": 6550,
      "mona": 6551,
      "monies": 6552,
      "monitor": 6553,
      "daamn": 6554,
      "heyo": 6555,
      "nearest": 6556,
      "percent": 6557,
      "##ifting": 6558,
      "##ifically": 6559,
      "reality": 6560,
      "veg": 6561,
      "musk": 6562,
      "musste": 6563,
      "175": 6564,
      "cards": 6565,
      "created": 6566,
      "credit": 6567,
      "contains": 6568,
      "cloves": 6569,
      "erkl": 6570,
      "erreich": 6571,
      "erdog": 6572,
      "erkalt": 6573,
      "stopping": 6574,
      "19th": 6575,
      "swear": 6576,
      "swatish": 6577,
      "nevermind": 6578,
      "trips": 6579,
      "ende": 6580,
      "ending": 6581,
      "featur": 6582,
      "febr": 6583,
      "feuer": 6584,
      "incred": 6585,
      "incoming": 6586,
      "explo": 6587,
      "express": 6588,
      "usefull": 6589,
      "sooner": 6590,
      "slut": 6591,
      "slayed": 6592,
      "##wert": 6593,
      "##werbung": 6594,
      "mission": 6595,
      "kept": 6596,
      "nachsten": 6597,
      "understood": 6598,
      "teacher": 6599,
      "taxis": 6600,
      "##nose": 6601,
      "almighty": 6602,
      "demand": 6603,
      "democ": 6604,
      "retract": 6605,
      "##odine": 6606,
      "skate": 6607,
      "commit": 6608,
      "50eur": 6609,
      "farmer": 6610,
      "recog": 6611,
      "recover": 6612,
      "studies": 6613,
      "studien": 6614,
      "breed": 6615,
      "durch": 6616,
      "##schaft": 6617,
      "##anka": 6618,
      "spell": 6619,
      "special": 6620,
      "desperate": 6621,
      "marvel": 6622,
      "gods": 6623,
      "##aaaaa": 6624,
      "lovely": 6625,
      "hotels": 6626,
      "reads": 6627,
      "packs": 6628,
      "##apping": 6629,
      "charm": 6630,
      "charge": 6631,
      "charac": 6632,
      "reaching": 6633,
      "differently": 6634,
      "ostsee": 6635,
      "serve": 6636,
      "lieben": 6637,
      "listing": 6638,
      "instance": 6639,
      "instagram": 6640,
      "deploy": 6641,
      "launch": 6642,
      "mirror": 6643,
      "##chem": 6644,
      "geholt": 6645,
      "shops": 6646,
      "regio": 6647,
      "spots": 6648,
      "spotted": 6649,
      "meetings": 6650,
      "tweaky": 6651,
      "famil": 6652,
      "linked": 6653,
      "shared": 6654,
      "transmit": 6655,
      "define": 6656,
      "defense": 6657,
      "defending": 6658,
      "polish": 6659,
      "political": 6660,
      "ruin": 6661,
      "ruber": 6662,
      "showering": 6663,
      "23rd": 6664,
      "colosse": 6665,
      "remeber": 6666,
      "suppose": 6667,
      "exploration": 6668,
      "indians": 6669,
      "higher": 6670,
      "highly": 6671,
      "fixing": 6672,
      "updates": 6673,
      "smooth": 6674,
      "smoking": 6675,
      "quickly": 6676,
      "googl": 6677,
      "mainstream": 6678,
      "yessss": 6679,
      "##uuuh": 6680,
      "fasting": 6681,
      "vorschl": 6682,
      "##ahahahaha": 6683,
      "awesome": 6684,
      "##rial": 6685,
      "##rrad": 6686,
      "##pected": 6687,
      "##kran": 6688,
      "secret": 6689,
      "temple": 6690,
      "trainings": 6691,
      "remembered": 6692,
      "discussed": 6693,
      "250": 6694,
      "docs": 6695,
      "##versity": 6696,
      "autos": 6697,
      "dump": 6698,
      "holiday": 6699,
      "holistically": 6700,
      "##emburg": 6701,
      "stands": 6702,
      "allows": 6703,
      "legal": 6704,
      "delicious": 6705,
      "burgermeister": 6706,
      "throws": 6707,
      "tabelle": 6708,
      "cursed": 6709,
      "krieg": 6710,
      "midnight": 6711,
      "##room": 6712,
      "##phone": 6713,
      "##⠄⠄⠄⠄⠄": 6714,
      "folge": 6715,
      "mache": 6716,
      "wilder": 6717,
      "zeigen": 6718,
      "hallo": 6719,
      "hallway": 6720,
      "frieden": 6721,
      "recommendation": 6722,
      "balance": 6723,
      "capable": 6724,
      "habits": 6725,
      "attend": 6726,
      "attention": 6727,
      "reminder": 6728,
      "removed": 6729,
      "spring": 6730,
      "management": 6731,
      "acr": 6732,
      "hangout": 6733,
      "kicks": 6734,
      "kicked": 6735,
      "loose": 6736,
      "queue": 6737,
      "raise": 6738,
      "##ioact": 6739,
      "organise": 6740,
      "complim": 6741,
      "complicated": 6742,
      "internal": 6743,
      "juicy": 6744,
      "potent": 6745,
      "formal": 6746,
      "formul": 6747,
      "chonk": 6748,
      "chonka": 6749,
      "changes": 6750,
      "##gelt": 6751,
      "sports": 6752,
      "sportlichen": 6753,
      "deciding": 6754,
      "negotiating": 6755,
      "negotiator": 6756,
      "freak": 6757,
      "##wiesen": 6758,
      "closet": 6759,
      "classic": 6760,
      "entering": 6761,
      "firefox": 6762,
      "daruber": 6763,
      "gleis": 6764,
      "landes": 6765,
      "salty": 6766,
      "wishes": 6767,
      "##aueninsel": 6768,
      "arena": 6769,
      "##angern": 6770,
      "gruße": 6771,
      "expected": 6772,
      "bullshitting": 6773,
      "deals": 6774,
      "dealer": 6775,
      "hurt": 6776,
      "klassen": 6777,
      "radlers": 6778,
      "radioact": 6779,
      "syria": 6780,
      "italy": 6781,
      "impossible": 6782,
      "!!!!!": 6783,
      "aayyyeee": 6784,
      "gayson": 6785,
      "pfand": 6786,
      "pfanne": 6787,
      "pfaueninsel": 6788,
      "sicher": 6789,
      "insurance": 6790,
      "haircut": 6791,
      "considering": 6792,
      "scammers": 6793,
      "##zeitig": 6794,
      "racen": 6795,
      "surpr": 6796,
      "meinem": 6797,
      "stepping": 6798,
      "stars": 6799,
      "starter": 6800,
      "shotters": 6801,
      "shorts": 6802,
      "argument": 6803,
      "toiletpap": 6804,
      "ayye": 6805,
      "alexander": 6806,
      "capt": 6807,
      "cafe": 6808,
      "matches": 6809,
      "value": 6810,
      "references": 6811,
      "promising": 6812,
      "selected": 6813,
      "profession": 6814,
      "schlag": 6815,
      "energie": 6816,
      "building": 6817,
      "slowly": 6818,
      "filters": 6819,
      "garlic": 6820,
      "parking": 6821,
      "version": 6822,
      "spoil": 6823,
      "dropping": 6824,
      "enjoying": 6825,
      "escape": 6826,
      "davor": 6827,
      "technique": 6828,
      "daten": 6829,
      "fully": 6830,
      "kartoff": 6831,
      "motion": 6832,
      "natural": 6833,
      "obsessed": 6834,
      "obscur": 6835,
      "##gescha": 6836,
      "pressure": 6837,
      "convin": 6838,
      "skipass": 6839,
      "properly": 6840,
      "current": 6841,
      "laughing": 6842,
      "schnelltest": 6843,
      "bussin": 6844,
      "fahrrad": 6845,
      "media": 6846,
      "nae": 6847,
      "naja": 6848,
      "stories": 6849,
      "limitations": 6850,
      "sparkasse": 6851,
      "exclus": 6852,
      "existence": 6853,
      "savigny": 6854,
      "increases": 6855,
      "tempelhofer": 6856,
      "kostenlos": 6857,
      "cigarette": 6858,
      "dutch": 6859,
      "eye": 6860,
      "edited": 6861,
      "fancy": 6862,
      "figured": 6863,
      "handy": 6864,
      "jason": 6865,
      "kochen": 6866,
      "kaiser": 6867,
      "labour": 6868,
      "publish": 6869,
      "wahrschein": 6870,
      "tort": 6871,
      "wetter": 6872,
      "issue": 6873,
      "presence": 6874,
      "subscri": 6875,
      "##agonist": 6876,
      "##agagagag": 6877,
      "robot": 6878,
      "blanket": 6879,
      "urgent": 6880,
      "slaps": 6881,
      "unserem": 6882,
      "completely": 6883,
      "##--------": 6884,
      "aayyeee": 6885,
      "außer": 6886,
      "bereich": 6887,
      "bereits": 6888,
      "cowan": 6889,
      "ghost": 6890,
      "ghey": 6891,
      "gathering": 6892,
      "ikea": 6893,
      "kurze": 6894,
      "kraut": 6895,
      "💀💀💀": 6896,
      "threw": 6897,
      "hackfle": 6898,
      "behave": 6899,
      "behavi": 6900,
      "bruder": 6901,
      "princess": 6902,
      "managed": 6903,
      "criminal": 6904,
      "criminals": 6905,
      "deserved": 6906,
      "hahahahahaha": 6907,
      "##🇦🇱🇦🇱🇦🇱🇦🇱🇦🇱🇦🇱🇦🇱🇦🇱🇦🇱🇦🇱🇦🇱🇦🇱🇦🇱🇦🇱🇦🇱🇦🇱": 6908,
      "mentioned": 6909,
      "ignore": 6910,
      "liquids": 6911,
      "5mins": 6912,
      "casually": 6913,
      "castro": 6914,
      "eternal": 6915,
      "fertil": 6916,
      "fertig": 6917,
      "heared": 6918,
      "karan": 6919,
      "kampf": 6920,
      "measuring": 6921,
      "pathetic": 6922,
      "tener": 6923,
      "tasty": 6924,
      "vaccin": 6925,
      "##halten": 6926,
      "announ": 6927,
      "animal": 6928,
      "ingredient": 6929,
      "ingredients": 6930,
      "guestlist": 6931,
      "combination": 6932,
      "wasser": 6933,
      "wassup": 6934,
      "triggering": 6935,
      "replied": 6936,
      "request": 6937,
      "ambulance": 6938,
      "sprechen": 6939,
      "climb": 6940,
      "modules": 6941,
      "verstehe": 6942,
      "##sssssss": 6943,
      "appreciate": 6944,
      "appreciated": 6945,
      "feedback": 6946,
      "lahmachun": 6947,
      "lahmachum": 6948,
      "skills": 6949,
      "describe": 6950,
      "description": 6951,
      "depressed": 6952,
      "depression": 6953,
      "snitches": 6954,
      "responsible": 6955,
      "responsibility": 6956,
      "bounce": 6957,
      "geschrie": 6958,
      "geschafft": 6959,
      "opposite": 6960,
      "doubt": 6961,
      "renovating": 6962,
      "crowded": 6963,
      "aaaay": 6964,
      "batteries": 6965,
      "equal": 6966,
      "eastern": 6967,
      "foto": 6968,
      "fanta": 6969,
      "gentlem": 6970,
      "koln": 6971,
      "million": 6972,
      "rotes": 6973,
      "sakko": 6974,
      "##hold": 6975,
      "meisterburger": 6976,
      "alternative": 6977,
      "brandenburger": 6978,
      "##entrum": 6979,
      "reagiert": 6980,
      "administration": 6981,
      "grocery": 6982,
      "precise": 6983,
      "luxemburg": 6984,
      "##schein": 6985,
      "installed": 6986,
      "uberweisen": 6987,
      "simply": 6988,
      "types": 6989,
      "hinterher": 6990,
      "method": 6991,
      "vietnames": 6992,
      "synthesiser": 6993,
      "##aneously": 6994,
      "escalated": 6995,
      "technology": 6996,
      "waldschull": 6997,
      "conditioning": 6998,
      "affect": 6999,
      "busted": 7000,
      "cycle": 7001,
      "circ": 7002,
      "dishes": 7003,
      "fault": 7004,
      "fountain": 7005,
      "hospital": 7006,
      "kopenick": 7007,
      "konto": 7008,
      "maps": 7009,
      "mashallah": 7010,
      "nicer": 7011,
      "punchline": 7012,
      "silence": 7013,
      "signing": 7014,
      "tusport": 7015,
      "warte": 7016,
      "zero": 7017,
      "thirsty": 7018,
      "anxious": 7019,
      "angebot": 7020,
      "statue": 7021,
      "ornek": 7022,
      "trailer": 7023,
      "minimum": 7024,
      "rechtzeitig": 7025,
      "priority": 7026,
      "lezzzzzzz": 7027,
      "spirit": 7028,
      "productive": 7029,
      "aggressive": 7030,
      "schreckens": 7031,
      "verlangern": 7032,
      "bluetooth": 7033,
      "mushrooms": 7034,
      "indoor": 7035,
      "industrial": 7036,
      "bestellen": 7037,
      "feiertag": 7038,
      "described": 7039,
      "georgisches": 7040,
      "parfait": 7041,
      "irrelevant": 7042,
      "copyright": 7043,
      "survive": 7044,
      "valeria": 7045,
      "bleiben": 7046,
      "struggling": 7047,
      "favourite": 7048,
      "absolute": 7049,
      "avengers": 7050,
      "bombs": 7051,
      "bayrakt": 7052,
      "bansko": 7053,
      "daily": 7054,
      "dessert": 7055,
      "daaamn": 7056,
      "einkaufen": 7057,
      "eigentlich": 7058,
      "fisherman": 7059,
      "felix": 7060,
      "gesehen": 7061,
      "gyros": 7062,
      "hilarious": 7063,
      "jesus": 7064,
      "joschi": 7065,
      "kotti": 7066,
      "kamenjak": 7067,
      "korean": 7068,
      "kisten": 7069,
      "klaas": 7070,
      "lanes": 7071,
      "museum": 7072,
      "niam": 7073,
      "nervous": 7074,
      "qifsha": 7075,
      "snacks": 7076,
      "sunglasses": 7077,
      "sisyph": 7078,
      "uvala": 7079,
      "uch_puch": 7080,
      "ubereats": 7081,
      "velma": 7082,
      "zimmer": 7083,
      "укра": 7084,
      "👁👄👁": 7085,
      "##kauft": 7086,
      "ansonsten": 7087,
      "intuition": 7088,
      "hammock": 7089,
      "channel": 7090,
      "melde": 7091,
      "algorith": 7092,
      "attempt": 7093,
      "plenty": 7094,
      "shampoo": 7095,
      "nephew": 7096,
      "guarantee": 7097,
      "oktober": 7098,
      "trippy": 7099,
      "refuse": 7100,
      "abgelaufen": 7101,
      "suicidal": 7102,
      "sublet": 7103,
      "develop": 7104,
      "degrees": 7105,
      "context": 7106,
      "conditions": 7107,
      "construct": 7108,
      "divyanshi": 7109,
      "chilliwings": 7110,
      "unnecessary": 7111,
      "unexpected": 7112,
      "gelesen": 7113,
      "gefragt": 7114,
      "geworden": 7115,
      "cocktails": 7116,
      "overcooked": 7117,
      "courses": 7118,
      "afterparty": 7119,
      "offshore": 7120,
      "flammkuchen": 7121,
      "ilaydas": 7122,
      "reservoir": 7123,
      "erdogan": 7124,
      "erkaltet": 7125,
      "features": 7126,
      "recogn": 7127,
      "transmitted": 7128,
      "colosseum": 7129,
      "surprised": 7130,
      "toiletpaper": 7131,
      "alexanderplatz": 7132,
      "obscurio": 7133,
      "savignyplatz": 7134,
      "wahrscheinlich": 7135,
      "hackfleisch": 7136,
      "behaviour": 7137,
      "geschrieben": 7138,
      "vietnamese": 7139,
      "bayraktar": 7140,
      "uch_puchuk": 7141,
      "!.": 7142,
      "(?": 7143,
      ")?": 7144,
      "+%": 7145,
      "++": 7146,
      "--": 7147,
      ".,": 7148,
      ".?": 7149,
      "04": 7150,
      "1h": 7151,
      "1o": 7152,
      "1x": 7153,
      "1am": 7154,
      "1pm": 7155,
      "36": 7156,
      "3am": 7157,
      "42": 7158,
      "43": 7159,
      "46": 7160,
      "55": 7161,
      "54": 7162,
      "5mm": 7163,
      "61": 7164,
      "64": 7165,
      "69": 7166,
      "78": 7167,
      "7pm": 7168,
      "700": 7169,
      "7343": 7170,
      "8m": 7171,
      "88": 7172,
      "8th": 7173,
      "9h": 7174,
      "9m": 7175,
      "98": 7176,
      "?😂": 7177,
      "?😅": 7178,
      "?💀": 7179,
      "?:": 7180,
      "aim": 7181,
      "aud": 7182,
      "ayyyy": 7183,
      "apr": 7184,
      "bj": 7185,
      "bing": 7186,
      "bly": 7187,
      "band": 7188,
      "bast": 7189,
      "bear": 7190,
      "bib": 7191,
      "bound": 7192,
      "biz": 7193,
      "bible": 7194,
      "bald": 7195,
      "bds": 7196,
      "cere": 7197,
      "cus": 7198,
      "core": 7199,
      "cik": 7200,
      "cents": 7201,
      "capp": 7202,
      "cud": 7203,
      "cell": 7204,
      "civil": 7205,
      "d4": 7206,
      "ding": 7207,
      "dak": 7208,
      "dage": 7209,
      "due": 7210,
      "denn": 7211,
      "dup": 7212,
      "eh": 7213,
      "eg": 7214,
      "eher": 7215,
      "east": 7216,
      "etw": 7217,
      "ehr": 7218,
      "eure": 7219,
      "eigen": 7220,
      "fs": 7221,
      "fer": 7222,
      "fet": 7223,
      "fle": 7224,
      "fee": 7225,
      "fand": 7226,
      "ful": 7227,
      "fear": 7228,
      "fist": 7229,
      "fax": 7230,
      "fever": 7231,
      "fans": 7232,
      "fog": 7233,
      "fisch": 7234,
      "fails": 7235,
      "fete": 7236,
      "fern": 7237,
      "fuhr": 7238,
      "gd": 7239,
      "gj": 7240,
      "gal": 7241,
      "gha": 7242,
      "gaste": 7243,
      "hm": 7244,
      "hust": 7245,
      "hid": 7246,
      "huh": 7247,
      "hide": 7248,
      "hint": 7249,
      "hina": 7250,
      "hof": 7251,
      "hug": 7252,
      "horn": 7253,
      "hhhhh": 7254,
      "holle": 7255,
      "iv": 7256,
      "iy": 7257,
      "iphone": 7258,
      "jk": 7259,
      "jed": 7260,
      "joo": 7261,
      "jam": 7262,
      "jum": 7263,
      "jeal": 7264,
      "jeden": 7265,
      "jamming": 7266,
      "ky": 7267,
      "kg": 7268,
      "kf": 7269,
      "kat": 7270,
      "kau": 7271,
      "kum": 7272,
      "kung": 7273,
      "kenn": 7274,
      "kuche": 7275,
      "kolle": 7276,
      "lp": 7277,
      "lone": 7278,
      "lun": 7279,
      "lind": 7280,
      "lul": 7281,
      "lap": 7282,
      "laid": 7283,
      "lina": 7284,
      "lower": 7285,
      "leeee": 7286,
      "langer": 7287,
      "lane": 7288,
      "laufen": 7289,
      "lyr": 7290,
      "mn": 7291,
      "mis": 7292,
      "mol": 7293,
      "mul": 7294,
      "mater": 7295,
      "momm": 7296,
      "mac": 7297,
      "mute": 7298,
      "mount": 7299,
      "mude": 7300,
      "massen": 7301,
      "mrt": 7302,
      "nj": 7303,
      "ner": 7304,
      "nun": 7305,
      "nig": 7306,
      "nast": 7307,
      "nth": 7308,
      "nute": 7309,
      "nnn": 7310,
      "nuc": 7311,
      "nails": 7312,
      "nipp": 7313,
      "nnnn": 7314,
      "ol": 7315,
      "oo": 7316,
      "os": 7317,
      "ou": 7318,
      "og": 7319,
      "ober": 7320,
      "oooooo": 7321,
      "pn": 7322,
      "pu": 7323,
      "pd": 7324,
      "por": 7325,
      "pard": 7326,
      "perman": 7327,
      "pure": 7328,
      "pour": 7329,
      "pik": 7330,
      "panz": 7331,
      "qad": 7332,
      "ray": 7333,
      "ree": 7334,
      "ress": 7335,
      "ruck": 7336,
      "ruh": 7337,
      "rate": 7338,
      "rum": 7339,
      "rig": 7340,
      "rage": 7341,
      "rass": 7342,
      "richt": 7343,
      "rang": 7344,
      "rare": 7345,
      "rise": 7346,
      "rote": 7347,
      "rated": 7348,
      "rents": 7349,
      "rauf": 7350,
      "rona": 7351,
      "rush": 7352,
      "rso": 7353,
      "rasen": 7354,
      "ruling": 7355,
      "sight": 7356,
      "sag": 7357,
      "sour": 7358,
      "sachen": 7359,
      "sarc": 7360,
      "tt": 7361,
      "t2": 7362,
      "tld": 7363,
      "tend": 7364,
      "til": 7365,
      "tang": 7366,
      "tents": 7367,
      "tats": 7368,
      "tours": 7369,
      "tiny": 7370,
      "uh": 7371,
      "ui": 7372,
      "u8": 7373,
      "una": 7374,
      "uhh": 7375,
      "uuu": 7376,
      "ubr": 7377,
      "vl": 7378,
      "vorg": 7379,
      "vod": 7380,
      "vosse": 7381,
      "verein": 7382,
      "vlog": 7383,
      "wg": 7384,
      "wak": 7385,
      "wies": 7386,
      "wirst": 7387,
      "wiz": 7388,
      "wik": 7389,
      "wisst": 7390,
      "xhan": 7391,
      "yt": 7392,
      "yy": 7393,
      "yay": 7394,
      "yam": 7395,
      "yee": 7396,
      "yoooo": 7397,
      "yeee": 7398,
      "zuf": 7399,
      "zelt": 7400,
      "во": 7401,
      "за": 7402,
      "лю": 7403,
      "сро": 7404,
      "та": 7405,
      "ვი": 7406,
      "ფს": 7407,
      "”,": 7408,
      "€.": 7409,
      "┻━": 7410,
      "⠄⠄⠄": 7411,
      "🌚🌚": 7412,
      "🎉🎉": 7413,
      "🏀,": 7414,
      "👌👌": 7415,
      "👌🏻": 7416,
      "💅🏻": 7417,
      "😂.": 7418,
      "😅😂": 7419,
      "😈😈": 7420,
      "😍😍": 7421,
      "🙌🏼": 7422,
      "🤌🏻": 7423,
      "🤔🤔": 7424,
      "🥳🥳": 7425,
      "🥺🥺": 7426,
      "##cl": 7427,
      "##cer": 7428,
      "##cot": 7429,
      "##card": 7430,
      "##case": 7431,
      "##cream": 7432,
      "##comes": 7433,
      "##cici": 7434,
      "##ez": 7435,
      "##eut": 7436,
      "##eff": 7437,
      "##hin": 7438,
      "##het": 7439,
      "##hst": 7440,
      "##hours": 7441,
      "##house": 7442,
      "##haupt": 7443,
      "##nj": 7444,
      "##nit": 7445,
      "##nere": 7446,
      "##nerst": 7447,
      "##lan": 7448,
      "##luck": 7449,
      "##lear": 7450,
      "##lauf": 7451,
      "##lons": 7452,
      "##rop": 7453,
      "##rink": 7454,
      "##ruck": 7455,
      "##rau": 7456,
      "##rain": 7457,
      "##rage": 7458,
      "##richt": 7459,
      "##rant": 7460,
      "##raschen": 7461,
      "##raining": 7462,
      "##oz": 7463,
      "##oot": 7464,
      "##ole": 7465,
      "##obl": 7466,
      "##bi": 7467,
      "##bre": 7468,
      "##bet": 7469,
      "##bir": 7470,
      "##bau": 7471,
      "##bind": 7472,
      "##bag": 7473,
      "##bass": 7474,
      "##bling": 7475,
      "##bby": 7476,
      "##bauen": 7477,
      "##bble": 7478,
      "##baden": 7479,
      "##ios": 7480,
      "##ibe": 7481,
      "##ihe": 7482,
      "##iks": 7483,
      "##iated": 7484,
      "##ivers": 7485,
      "##su": 7486,
      "##sk": 7487,
      "##ser": 7488,
      "##shof": 7489,
      "##sitz": 7490,
      "##uing": 7491,
      "##uen": 7492,
      "##uar": 7493,
      "##uda": 7494,
      "##ugen": 7495,
      "##aun": 7496,
      "##auss": 7497,
      "##aoke": 7498,
      "##ajf": 7499,
      "##wr": 7500,
      "##wa": 7501,
      "##war": 7502,
      "##wai": 7503,
      "##water": 7504,
      "##ware": 7505,
      "##wali": 7506,
      "##woh": 7507,
      "##do": 7508,
      "##dat": 7509,
      "##ddy": 7510,
      "##down": 7511,
      "##dating": 7512,
      "##damm": 7513,
      "##dige": 7514,
      "##drink": 7515,
      "##tl": 7516,
      "##tv": 7517,
      "##tin": 7518,
      "##tier": 7519,
      "##vin": 7520,
      "##vid": 7521,
      "##vap": 7522,
      "##verein": 7523,
      "##yal": 7524,
      "##yog": 7525,
      "##gm": 7526,
      "##gut": 7527,
      "##gle": 7528,
      "##gab": 7529,
      "##gic": 7530,
      "##gard": 7531,
      "##gull": 7532,
      "##gabe": 7533,
      "##gnose": 7534,
      "##он": 7535,
      "##ои": 7536,
      "##ов": 7537,
      "##об": 7538,
      "##ка": 7539,
      "##ки": 7540,
      "##ру": 7541,
      "##fk": 7542,
      "##fon": 7543,
      "##fill": 7544,
      "##fas": 7545,
      "##fall": 7546,
      "##fun": 7547,
      "##ftw": 7548,
      "##fang": 7549,
      "##fits": 7550,
      "##fying": 7551,
      "##force": 7552,
      "##freich": 7553,
      "##fallen": 7554,
      "##fesa": 7555,
      "##).": 7556,
      "##pu": 7557,
      "##pß": 7558,
      "##por": 7559,
      "##pet": 7560,
      "##piel": 7561,
      "##pha": 7562,
      "##papp": 7563,
      "##pro": 7564,
      "##met": 7565,
      "##mun": 7566,
      "##mate": 7567,
      "##made": 7568,
      "##mates": 7569,
      "##kg": 7570,
      "##kat": 7571,
      "##kie": 7572,
      "##kolleg": 7573,
      "##xing": 7574,
      "##не": 7575,
      "##ни": 7576,
      "##ны": 7577,
      "##ея": 7578,
      "##zer": 7579,
      "##zes": 7580,
      "##zill": 7581,
      "##zoll": 7582,
      "##zpunk": 7583,
      "##zdem": 7584,
      "##аа": 7585,
      "##ал": 7586,
      "##76": 7587,
      "##71": 7588,
      "##700": 7589,
      "##22": 7590,
      "##270": 7591,
      "##63": 7592,
      "##66": 7593,
      "##80": 7594,
      "##824": 7595,
      "##10": 7596,
      "##44": 7597,
      "##🙏🏼": 7598,
      "##ту": 7599,
      "##та": 7600,
      "##иши": 7601,
      "##jd": 7602,
      "##jen": 7603,
      "##jor": 7604,
      "##jama": 7605,
      "##чно": 7606,
      "##⣿⣷": 7607,
      "##ва": 7608,
      "##ван": 7609,
      "##вет": 7610,
      "##де": 7611,
      "##дин": 7612,
      "##90": 7613,
      "##юз": 7614,
      "##⣛⠿": 7615,
      "##⣭⣭": 7616,
      "##🙌🏼": 7617,
      "##ся": 7618,
      "##скии": 7619,
      "##ელ": 7620,
      "##ის": 7621,
      "##რის": 7622,
      "##зал": 7623,
      "##ль": 7624,
      "##➕➕": 7625,
      "##🚀🚀": 7626,
      "##жно": 7627,
      "##🔪🔪": 7628,
      "tha": 7629,
      "thai": 7630,
      "thus": 7631,
      "thick": 7632,
      "##inity": 7633,
      "##inese": 7634,
      "##innere": 7635,
      "##era": 7636,
      "##erk": 7637,
      "##erte": 7638,
      "##ergl": 7639,
      "##erkran": 7640,
      "##ouille": 7641,
      "##anth": 7642,
      "##anks": 7643,
      "##ancun": 7644,
      "##anlagen": 7645,
      "theat": 7646,
      "##ingers": 7647,
      "##ingerecht": 7648,
      "tok": 7649,
      "toler": 7650,
      "tobias": 7651,
      "toxic": 7652,
      "##lla": 7653,
      "##llll": 7654,
      "##oni": 7655,
      "##ond": 7656,
      "##ony": 7657,
      "##oned": 7658,
      "##enen": 7659,
      "##ennt": 7660,
      "##ency": 7661,
      "##enuse": 7662,
      "##enkasse": 7663,
      "##ora": 7664,
      "##orp": 7665,
      "##ored": 7666,
      "##oria": 7667,
      "##orious": 7668,
      "##orial": 7669,
      "##aty": 7670,
      "##atar": 7671,
      "##atic": 7672,
      "##atung": 7673,
      "##ativ": 7674,
      "##atulations": 7675,
      "##atouille": 7676,
      "##esch": 7677,
      "##esden": 7678,
      "##escake": 7679,
      "anci": 7680,
      "ankle": 7681,
      "anhang": 7682,
      "anruf": 7683,
      "anwes": 7684,
      "angescha": 7685,
      "##omet": 7686,
      "inr": 7687,
      "inte": 7688,
      "innen": 7689,
      "insel": 7690,
      "ineff": 7691,
      "##ito": 7692,
      "##itet": 7693,
      "##itag": 7694,
      "##chy": 7695,
      "##chon": 7696,
      "##change": 7697,
      "##chreib": 7698,
      "web": 7699,
      "weit": 7700,
      "weiter": 7701,
      "##reen": 7702,
      "##rete": 7703,
      "itself": 7704,
      "##eton": 7705,
      "##etten": 7706,
      "##etration": 7707,
      "##etragen": 7708,
      "ish": 7709,
      "##isse": 7710,
      "hae": 7711,
      "hai": 7712,
      "haf": 7713,
      "##edom": 7714,
      "##educ": 7715,
      "##edickt": 7716,
      "whit": 7717,
      "whol": 7718,
      "whipped": 7719,
      "whaat": 7720,
      "##otic": 7721,
      "##otchen": 7722,
      "##otzdem": 7723,
      "anderen": 7724,
      "##eaks": 7725,
      "##eared": 7726,
      "##eable": 7727,
      "##stal": 7728,
      "##stad": 7729,
      "##stood": 7730,
      "##staltung": 7731,
      "##uth": 7732,
      "##utzen": 7733,
      "##utaten": 7734,
      "##utzpunk": 7735,
      "##erei": 7736,
      "fore": 7737,
      "fort": 7738,
      "forks": 7739,
      "forces": 7740,
      "chur": 7741,
      "chad": 7742,
      "chos": 7743,
      "chess": 7744,
      "chak": 7745,
      "chese": 7746,
      "chains": 7747,
      "choices": 7748,
      "chinese": 7749,
      "##amas": 7750,
      "##amil": 7751,
      "onions": 7752,
      "onto": 7753,
      "##aring": 7754,
      "##arung": 7755,
      "##arity": 7756,
      "##ario": 7757,
      "##arjo": 7758,
      "##arily": 7759,
      "##arbeit": 7760,
      "##arzes": 7761,
      "##kemon": 7762,
      "##ckin": 7763,
      "##cking": 7764,
      "##ckets": 7765,
      "candies": 7766,
      "beim": 7767,
      "beating": 7768,
      "beats": 7769,
      "bekomm": 7770,
      "beisp": 7771,
      "bevor": 7772,
      "beiden": 7773,
      "bewiesen": 7774,
      "##lehr": 7775,
      "##lebr": 7776,
      "##seest": 7777,
      "##seits": 7778,
      "##semester": 7779,
      "##secco": 7780,
      "mel": 7781,
      "meinen": 7782,
      "melden": 7783,
      "std": 7784,
      "stone": 7785,
      "stink": 7786,
      "stort": 7787,
      "stra": 7788,
      "storm": 7789,
      "stating": 7790,
      "stations": 7791,
      "stove": 7792,
      "stairs": 7793,
      "stinky": 7794,
      "stole": 7795,
      "steaks": 7796,
      "dim": 7797,
      "dialog": 7798,
      "diwali": 7799,
      "alice": 7800,
      "aldi": 7801,
      "alpha": 7802,
      "##aiiiii": 7803,
      "##asy": 7804,
      "##asher": 7805,
      "athen": 7806,
      "areas": 7807,
      "plast": 7808,
      "plodine": 7809,
      "shou": 7810,
      "shout": 7811,
      "shak": 7812,
      "shady": 7813,
      "sheee": 7814,
      "shaming": 7815,
      "shait": 7816,
      "dod": 7817,
      "dokie": 7818,
      "##ceeeee": 7819,
      "##urer": 7820,
      "##urable": 7821,
      "##urlaub": 7822,
      "##alat": 7823,
      "##allig": 7824,
      "##allaaah": 7825,
      "##usch": 7826,
      "##usik": 7827,
      "##ussel": 7828,
      "brick": 7829,
      "bracket": 7830,
      "brru": 7831,
      "brotchen": 7832,
      "lic": 7833,
      "lim": 7834,
      "lion": 7835,
      "liar": 7836,
      "limb": 7837,
      "lips": 7838,
      "lichten": 7839,
      "libre": 7840,
      "lifesa": 7841,
      "button": 7842,
      "notification": 7843,
      "goin": 7844,
      "goal": 7845,
      "goimg": 7846,
      "sold": 7847,
      "soft": 7848,
      "soap": 7849,
      "soße": 7850,
      "socks": 7851,
      "sofia": 7852,
      "sofa": 7853,
      "softw": 7854,
      "org": 7855,
      "orth": 7856,
      "orange": 7857,
      "##under": 7858,
      "nehr": 7859,
      "necess": 7860,
      "frust": 7861,
      "frame": 7862,
      "frick": 7863,
      "frage": 7864,
      "fragt": 7865,
      "fritz": 7866,
      "##opa": 7867,
      "##imp": 7868,
      "##imal": 7869,
      "##imately": 7870,
      "height": 7871,
      "helf": 7872,
      "heckin": 7873,
      "within": 7874,
      "##vert": 7875,
      "##verted": 7876,
      "##vermi": 7877,
      "##verruck": 7878,
      "##verbind": 7879,
      "##adition": 7880,
      "##ahaa": 7881,
      "##ahhh": 7882,
      "gum": 7883,
      "guis": 7884,
      "gult": 7885,
      "justice": 7886,
      "##idies": 7887,
      "##hero": 7888,
      "##herberge": 7889,
      "aske": 7890,
      "aside": 7891,
      "asian": 7892,
      "##ctions": 7893,
      "##iche": 7894,
      "##entary": 7895,
      "comeby": 7896,
      "comeback": 7897,
      "coma": 7898,
      "comment": 7899,
      "upper": 7900,
      "upto": 7901,
      "upset": 7902,
      "dono": 7903,
      "donner": 7904,
      "donnerst": 7905,
      "okra": 7906,
      "##abl": 7907,
      "##ably": 7908,
      "tramp": 7909,
      "tries": 7910,
      "trier": 7911,
      "tratt": 7912,
      "tribe": 7913,
      "trinity": 7914,
      "trotzdem": 7915,
      "truth": 7916,
      "tradition": 7917,
      "minor": 7918,
      "minus": 7919,
      "##esting": 7920,
      "##estens": 7921,
      "##osischen": 7922,
      "##osajf": 7923,
      "##oline": 7924,
      "rew": 7925,
      "recher": 7926,
      "regga": 7927,
      "rebook": 7928,
      "reihe": 7929,
      "prise": 7930,
      "pruf": 7931,
      "prote": 7932,
      "prign": 7933,
      "prakt": 7934,
      "abusing": 7935,
      "abbauen": 7936,
      "sub": 7937,
      "suis": 7938,
      "suchen": 7939,
      "suits": 7940,
      "##iell": 7941,
      "##iele": 7942,
      "##iebel": 7943,
      "alley": 7944,
      "amig": 7945,
      "amster": 7946,
      "ammun": 7947,
      "peul": 7948,
      "joe": 7949,
      "joana": 7950,
      "jogurt": 7951,
      "##essen": 7952,
      "lez": 7953,
      "leck": 7954,
      "leben": 7955,
      "lemon": 7956,
      "leihen": 7957,
      "##acken": 7958,
      "spa": 7959,
      "spar": 7960,
      "spent": 7961,
      "spain": 7962,
      "spann": 7963,
      "spacko": 7964,
      "outrage": 7965,
      "##ppies": 7966,
      "##endo": 7967,
      "images": 7968,
      "##icet": 7969,
      "##ication": 7970,
      "##iccc": 7971,
      "##icient": 7972,
      "manif": 7973,
      "manner": 7974,
      "mango": 7975,
      "##iling": 7976,
      "##ilal": 7977,
      "##ilung": 7978,
      "letz": 7979,
      "whose": 7980,
      "cominggg": 7981,
      "gott": 7982,
      "gotten": 7983,
      "##auch": 7984,
      "##auce": 7985,
      "##aki": 7986,
      "##akin": 7987,
      "knobl": 7988,
      "worum": 7989,
      "worden": 7990,
      "worship": 7991,
      "##aint": 7992,
      "##bein": 7993,
      "##ffen": 7994,
      "haus7": 7995,
      "goodby": 7996,
      "goodness": 7997,
      "dragon": 7998,
      "drastic": 7999,
      "draw": 8000,
      "drivers": 8001,
      "dresden": 8002,
      "##ersauce": 8003,
      "bits": 8004,
      "bitten": 8005,
      "dev": 8006,
      "depp": 8007,
      "deport": 8008,
      "depart": 8009,
      "decept": 8010,
      "yeaaaaa": 8011,
      "bod": 8012,
      "boom": 8013,
      "bock": 8014,
      "bold": 8015,
      "##indr": 8016,
      "##inds": 8017,
      "fuckers": 8018,
      "league": 8019,
      "##andste": 8020,
      "##oller": 8021,
      "##ulin": 8022,
      "##ulalle": 8023,
      "30270": 8024,
      "exe": 8025,
      "exchange": 8026,
      "##achu": 8027,
      "##achten": 8028,
      "##achlich": 8029,
      "##achgut": 8030,
      "##ationship": 8031,
      "##locks": 8032,
      "seine": 8033,
      "sept": 8034,
      "semin": 8035,
      "teuer": 8036,
      "teurer": 8037,
      "101": 8038,
      "10am": 8039,
      "household": 8040,
      "worksh": 8041,
      "usa": 8042,
      "backers": 8043,
      "backery": 8044,
      "background": 8045,
      "gonne": 8046,
      "##agging": 8047,
      "##male": 8048,
      "##bogen": 8049,
      "##derte": 8050,
      "waxing": 8051,
      "stuart": 8052,
      "203": 8053,
      "20kg": 8054,
      "const": 8055,
      "conqu": 8056,
      "##ptom": 8057,
      "joins": 8058,
      "joined": 8059,
      "##orts": 8060,
      "chef": 8061,
      "cheating": 8062,
      "cheescake": 8063,
      "progress": 8064,
      "prognose": 8065,
      "prosecco": 8066,
      "##kampf": 8067,
      "##arding": 8068,
      "plaza": 8069,
      "##platze": 8070,
      "chillin": 8071,
      "chillen": 8072,
      "waits": 8073,
      "##thin": 8074,
      "##asso": 8075,
      "##assing": 8076,
      "herz": 8077,
      "herum": 8078,
      "herself": 8079,
      "arch": 8080,
      "arham": 8081,
      "arzt": 8082,
      "afd": 8083,
      "mochten": 8084,
      "planing": 8085,
      "##ahaha": 8086,
      "##alki": 8087,
      "craz": 8088,
      "crunch": 8089,
      "crisp": 8090,
      "crashing": 8091,
      "##uelle": 8092,
      "startup": 8093,
      "bitched": 8094,
      "bitchez": 8095,
      "books": 8096,
      "bosses": 8097,
      "sometime": 8098,
      "##enser": 8099,
      "##ensed": 8100,
      "##ensions": 8101,
      "ung": 8102,
      "unity": 8103,
      "units": 8104,
      "unfort": 8105,
      "unsee": 8106,
      "unpack": 8107,
      "uncle": 8108,
      "unreal": 8109,
      "unluck": 8110,
      "##gging": 8111,
      "##gged": 8112,
      "##chenende": 8113,
      "geo": 8114,
      "gebe": 8115,
      "geland": 8116,
      "gekommen": 8117,
      "geplant": 8118,
      "coc": 8119,
      "coinc": 8120,
      "covid": 8121,
      "rights": 8122,
      "##aaay": 8123,
      "homemade": 8124,
      "overd": 8125,
      "overth": 8126,
      "sched": 8127,
      "schone": 8128,
      "schme": 8129,
      "schicht": 8130,
      "schwer": 8131,
      "schmit": 8132,
      "schnapp": 8133,
      "##apa": 8134,
      "##apy": 8135,
      "##apen": 8136,
      "##teiler": 8137,
      "##teilung": 8138,
      "watches": 8139,
      "volleyballer": 8140,
      "volleyballanlagen": 8141,
      "volleyballverruck": 8142,
      "becoming": 8143,
      "role": 8144,
      "roast": 8145,
      "roger": 8146,
      "roaming": 8147,
      "bhilal": 8148,
      "bhalki": 8149,
      "ens": 8150,
      "ads": 8151,
      "admit": 8152,
      "advant": 8153,
      "advice": 8154,
      "adiks": 8155,
      "##ibles": 8156,
      "probieren": 8157,
      "diejen": 8158,
      "boiiiii": 8159,
      "load": 8160,
      "locked": 8161,
      "bug": 8162,
      "bully": 8163,
      "bubble": 8164,
      "buddy": 8165,
      "cooling": 8166,
      "vertr": 8167,
      "verdict": 8168,
      "vergang": 8169,
      "vergn": 8170,
      "verkauft": 8171,
      "verteiler": 8172,
      "##ounds": 8173,
      "puta": 8174,
      "saving": 8175,
      "sacr": 8176,
      "##deckt": 8177,
      "##ussss": 8178,
      "idc": 8179,
      "idee": 8180,
      "barkam": 8181,
      "quit": 8182,
      "eurog": 8183,
      "europa": 8184,
      "##ective": 8185,
      "eines": 8186,
      "einpack": 8187,
      "whichever": 8188,
      "grass": 8189,
      "grant": 8190,
      "grave": 8191
    }
  }
}